{
  "version": "1.0",
  "truncation": null,
  "padding": null,
  "added_tokens": [
    {
      "id": 0,
      "content": "[UNK]",
      "single_word": false,
      "lstrip": false,
      "rstrip": false,
      "normalized": false,
      "special": true
    },
    {
      "id": 1,
      "content": "[CLS]",
      "single_word": false,
      "lstrip": false,
      "rstrip": false,
      "normalized": false,
      "special": true
    },
    {
      "id": 2,
      "content": "[SEP]",
      "single_word": false,
      "lstrip": false,
      "rstrip": false,
      "normalized": false,
      "special": true
    },
    {
      "id": 3,
      "content": "[PAD]",
      "single_word": false,
      "lstrip": false,
      "rstrip": false,
      "normalized": false,
      "special": true
    },
    {
      "id": 4,
      "content": "[MASK]",
      "single_word": false,
      "lstrip": false,
      "rstrip": false,
      "normalized": false,
      "special": true
    }
  ],
  "normalizer": null,
  "pre_tokenizer": {
    "type": "BertPreTokenizer"
  },
  "post_processor": {
    "type": "TemplateProcessing",
    "single": [
      {
        "SpecialToken": {
          "id": "[CLS]",
          "type_id": 0
        }
      },
      {
        "Sequence": {
          "id": "A",
          "type_id": 0
        }
      },
      {
        "SpecialToken": {
          "id": "[SEP]",
          "type_id": 0
        }
      }
    ],
    "pair": [
      {
        "SpecialToken": {
          "id": "[CLS]",
          "type_id": 0
        }
      },
      {
        "Sequence": {
          "id": "A",
          "type_id": 0
        }
      },
      {
        "SpecialToken": {
          "id": "[SEP]",
          "type_id": 0
        }
      },
      {
        "Sequence": {
          "id": "B",
          "type_id": 0
        }
      },
      {
        "SpecialToken": {
          "id": "[SEP]",
          "type_id": 0
        }
      }
    ],
    "special_tokens": {
      "[CLS]": {
        "id": "[CLS]",
        "ids": [
          1
        ],
        "tokens": [
          "[CLS]"
        ]
      },
      "[SEP]": {
        "id": "[SEP]",
        "ids": [
          2
        ],
        "tokens": [
          "[SEP]"
        ]
      }
    }
  },
  "decoder": null,
  "model": {
    "type": "WordPiece",
    "unk_token": "[UNK]",
    "continuing_subword_prefix": "##",
    "max_input_chars_per_word": 100,
    "vocab": {
      "[UNK]": 0,
      "[CLS]": 1,
      "[SEP]": 2,
      "[PAD]": 3,
      "[MASK]": 4,
      "!": 5,
      "\"": 6,
      "#": 7,
      "$": 8,
      "%": 9,
      "&": 10,
      "'": 11,
      "(": 12,
      ")": 13,
      "+": 14,
      ",": 15,
      "-": 16,
      ".": 17,
      "/": 18,
      "0": 19,
      "1": 20,
      "2": 21,
      "3": 22,
      "4": 23,
      "5": 24,
      "6": 25,
      "7": 26,
      "8": 27,
      "9": 28,
      ":": 29,
      ";": 30,
      "=": 31,
      "@": 32,
      "A": 33,
      "B": 34,
      "C": 35,
      "D": 36,
      "E": 37,
      "F": 38,
      "G": 39,
      "H": 40,
      "I": 41,
      "J": 42,
      "K": 43,
      "L": 44,
      "M": 45,
      "N": 46,
      "O": 47,
      "P": 48,
      "Q": 49,
      "R": 50,
      "S": 51,
      "T": 52,
      "U": 53,
      "V": 54,
      "W": 55,
      "X": 56,
      "Y": 57,
      "Z": 58,
      "[": 59,
      "]": 60,
      "a": 61,
      "b": 62,
      "c": 63,
      "d": 64,
      "e": 65,
      "f": 66,
      "g": 67,
      "h": 68,
      "i": 69,
      "j": 70,
      "k": 71,
      "l": 72,
      "m": 73,
      "n": 74,
      "o": 75,
      "p": 76,
      "q": 77,
      "r": 78,
      "s": 79,
      "t": 80,
      "u": 81,
      "v": 82,
      "w": 83,
      "x": 84,
      "y": 85,
      "z": 86,
      "~": 87,
      "£": 88,
      "°": 89,
      "²": 90,
      "µ": 91,
      "Ä": 92,
      "Æ": 93,
      "á": 94,
      "ä": 95,
      "å": 96,
      "é": 97,
      "í": 98,
      "ć": 99,
      "Ō": 100,
      "ō": 101,
      "Š": 102,
      "ū": 103,
      "ḏ": 104,
      "ṯ": 105,
      "–": 106,
      "—": 107,
      "‘": 108,
      "’": 109,
      "“": 110,
      "”": 111,
      "†": 112,
      "‡": 113,
      "₤": 114,
      "₹": 115,
      "い": 116,
      "う": 117,
      "か": 118,
      "が": 119,
      "き": 120,
      "く": 121,
      "し": 122,
      "た": 123,
      "つ": 124,
      "な": 125,
      "の": 126,
      "め": 127,
      "も": 128,
      "ら": 129,
      "ァ": 130,
      "ア": 131,
      "キ": 132,
      "ュ": 133,
      "リ": 134,
      "ル": 135,
      "ヴ": 136,
      "乙": 137,
      "光": 138,
      "名": 139,
      "君": 140,
      "命": 141,
      "咲": 142,
      "場": 143,
      "女": 144,
      "戦": 145,
      "灯": 146,
      "瘡": 147,
      "花": 148,
      "誓": 149,
      "誰": 150,
      "赤": 151,
      "運": 152,
      "銃": 153,
      "願": 154,
      "３": 155,
      "�": 156,
      "##2": 157,
      "##r": 158,
      "##e": 159,
      "##d": 160,
      "##a": 161,
      "##t": 162,
      "##o": 163,
      "##y": 164,
      "##s": 165,
      "##w": 166,
      "##h": 167,
      "##n": 168,
      "##l": 169,
      "##i": 170,
      "##c": 171,
      "##g": 172,
      "##u": 173,
      "##b": 174,
      "##v": 175,
      "##f": 176,
      "##p": 177,
      "##m": 178,
      "##z": 179,
      "##k": 180,
      "##x": 181,
      "##0": 182,
      "##9": 183,
      "##7": 184,
      "##6": 185,
      "##5": 186,
      "##q": 187,
      "##1": 188,
      "##3": 189,
      "##A": 190,
      "##4": 191,
      "##8": 192,
      "##場": 193,
      "##の": 194,
      "##ヴ": 195,
      "##ァ": 196,
      "##ル": 197,
      "##キ": 198,
      "##ュ": 199,
      "##リ": 200,
      "##ア": 201,
      "##３": 202,
      "##j": 203,
      "##W": 204,
      "##I": 205,
      "##P": 206,
      "##M": 207,
      "##S": 208,
      "##R": 209,
      "##O": 210,
      "##C": 211,
      "##が": 212,
      "##た": 213,
      "##め": 214,
      "##銃": 215,
      "##瘡": 216,
      "##L": 217,
      "##T": 218,
      "##Z": 219,
      "##H": 220,
      "##V": 221,
      "##í": 222,
      "##U": 223,
      "##E": 224,
      "##N": 225,
      "##ṯ": 226,
      "##F": 227,
      "##B": 228,
      "##D": 229,
      "##å": 230,
      "##ä": 231,
      "##ō": 232,
      "##é": 233,
      "##G": 234,
      "##K": 235,
      "##き": 236,
      "##運": 237,
      "##命": 238,
      "##戦": 239,
      "##乙": 240,
      "##女": 241,
      "##し": 242,
      "##も": 243,
      "##君": 244,
      "##願": 245,
      "##う": 246,
      "##な": 247,
      "##ら": 248,
      "##つ": 249,
      "##か": 250,
      "##咲": 251,
      "##く": 252,
      "##光": 253,
      "##花": 254,
      "##Y": 255,
      "##Ä": 256,
      "##誓": 257,
      "##い": 258,
      "##ū": 259,
      "##á": 260,
      "##ć": 261,
      "##he": 262,
      "the": 263,
      "##er": 264,
      "##in": 265,
      "##ed": 266,
      "##on": 267,
      "##or": 268,
      "##es": 269,
      "##nd": 270,
      "##at": 271,
      "##en": 272,
      "##ar": 273,
      "##it": 274,
      "of": 275,
      "##an": 276,
      "in": 277,
      "##al": 278,
      "##ing": 279,
      "and": 280,
      "##as": 281,
      "##is": 282,
      "to": 283,
      "##ion": 284,
      "##ic": 285,
      "##re": 286,
      "##ro": 287,
      "##ou": 288,
      "##el": 289,
      "##il": 290,
      "th": 291,
      "##om": 292,
      "##ir": 293,
      "##ac": 294,
      "##ent": 295,
      "##ec": 296,
      "##st": 297,
      "##am": 298,
      "was": 299,
      "The": 300,
      "##et": 301,
      "for": 302,
      "##iv": 303,
      "##ly": 304,
      "##ot": 305,
      "##le": 306,
      "##ad": 307,
      "##ation": 308,
      "##od": 309,
      "##ol": 310,
      "##ay": 311,
      "##ur": 312,
      "##ith": 313,
      "##ig": 314,
      "as": 315,
      "on": 316,
      "##ter": 317,
      "re": 318,
      "with": 319,
      "##ow": 320,
      "be": 321,
      "##id": 322,
      "that": 323,
      "##ul": 324,
      "##ts": 325,
      "st": 326,
      "de": 327,
      "##ies": 328,
      "##im": 329,
      "##th": 330,
      "##um": 331,
      "al": 332,
      "##ere": 333,
      "##ra": 334,
      "con": 335,
      "wh": 336,
      "##se": 337,
      "were": 338,
      "##ut": 339,
      "##her": 340,
      "##ver": 341,
      "##ce": 342,
      "##rom": 343,
      "by": 344,
      "##ess": 345,
      "##oc": 346,
      "an": 347,
      "god": 348,
      "##un": 349,
      "19": 350,
      "##em": 351,
      "##ers": 352,
      "##pt": 353,
      "##ri": 354,
      "##ist": 355,
      "at": 356,
      "is": 357,
      "##us": 358,
      "##ch": 359,
      "##if": 360,
      "##and": 361,
      "##av": 362,
      "com": 363,
      "##ain": 364,
      "or": 365,
      "##ian": 366,
      "##os": 367,
      "##ct": 368,
      "##ip": 369,
      "##ate": 370,
      "from": 371,
      "##ld": 372,
      "##ame": 373,
      "pl": 374,
      "are": 375,
      "##op": 376,
      "su": 377,
      "##ack": 378,
      "##ear": 379,
      "##all": 380,
      "##lu": 381,
      "##ort": 382,
      "##ag": 383,
      "##ated": 384,
      "##igh": 385,
      "sh": 386,
      "air": 387,
      "ch": 388,
      "##ant": 389,
      "##gh": 390,
      "##pp": 391,
      "pro": 392,
      "gods": 393,
      "##est": 394,
      "##ect": 395,
      "##ich": 396,
      "se": 397,
      "##art": 398,
      "##ities": 399,
      "##ak": 400,
      "##ity": 401,
      "20": 402,
      "In": 403,
      "##ab": 404,
      "sp": 405,
      "##ie": 406,
      "##ial": 407,
      "##rou": 408,
      "##ine": 409,
      "##ore": 410,
      "##ong": 411,
      "ex": 412,
      "wor": 413,
      "##ther": 414,
      "##gy": 415,
      "##ard": 416,
      "which": 417,
      "##ans": 418,
      "##ive": 419,
      "their": 420,
      "##ition": 421,
      "his": 422,
      "##ost": 423,
      "had": 424,
      "not": 425,
      "her": 426,
      "##ap": 427,
      "tr": 428,
      "he": 429,
      "##ia": 430,
      "##ft": 431,
      "##les": 432,
      "##ary": 433,
      "it": 434,
      "Ch": 435,
      "Egy": 436,
      "Egypt": 437,
      "##ment": 438,
      "##ations": 439,
      "##qu": 440,
      "##ign": 441,
      "##res": 442,
      "rec": 443,
      "##ock": 444,
      "##ru": 445,
      "##ould": 446,
      "ne": 447,
      "##ord": 448,
      "##raft": 449,
      "ar": 450,
      "per": 451,
      "##ust": 452,
      "inc": 453,
      "##low": 454,
      "cont": 455,
      "en": 456,
      "un": 457,
      "rel": 458,
      "##ight": 459,
      "St": 460,
      "##ally": 461,
      "##ous": 462,
      "##per": 463,
      "##ill": 464,
      "##ome": 465,
      "##ov": 466,
      "##ber": 467,
      "play": 468,
      "other": 469,
      "##ory": 470,
      "18": 471,
      "##rit": 472,
      "##ge": 473,
      "##our": 474,
      "##ff": 475,
      "comm": 476,
      "##ast": 477,
      "##ave": 478,
      "te": 479,
      "cl": 480,
      "tw": 481,
      "##ron": 482,
      "Ar": 483,
      "##cc": 484,
      "##ely": 485,
      "deities": 486,
      "Egyptian": 487,
      "whe": 488,
      "##ough": 489,
      "who": 490,
      "He": 491,
      "des": 492,
      "int": 493,
      "##out": 494,
      "one": 495,
      "fir": 496,
      "##ions": 497,
      "rep": 498,
      "##oin": 499,
      "##hed": 500,
      "man": 501,
      "##fter": 502,
      "##00": 503,
      "##ild": 504,
      "but": 505,
      "game": 506,
      "##og": 507,
      "##so": 508,
      "##craft": 509,
      "GA": 510,
      "le": 511,
      "also": 512,
      "she": 513,
      "##ue": 514,
      "##ings": 515,
      "##tle": 516,
      "##iz": 517,
      "them": 518,
      "##erv": 519,
      "##ark": 520,
      "pr": 521,
      "##ph": 522,
      "im": 523,
      "its": 524,
      "form": 525,
      "has": 526,
      "year": 527,
      "##ance": 528,
      "##ide": 529,
      "act": 530,
      "tim": 531,
      "##hip": 532,
      "##ass": 533,
      "##ason": 534,
      "ab": 535,
      "##ure": 536,
      "##act": 537,
      "##ach": 538,
      "##old": 539,
      "first": 540,
      "part": 541,
      "##ire": 542,
      "aircraft": 543,
      "have": 544,
      "##ound": 545,
      "##ull": 546,
      "comp": 547,
      "two": 548,
      "##ish": 549,
      "##ell": 550,
      "this": 551,
      "##ult": 552,
      "##end": 553,
      "##ile": 554,
      "It": 555,
      "##ok": 556,
      "off": 557,
      "##ade": 558,
      "##uring": 559,
      "all": 560,
      "car": 561,
      "over": 562,
      "##ky": 563,
      "##ames": 564,
      "##lud": 565,
      "app": 566,
      "##ten": 567,
      "##ning": 568,
      "##ry": 569,
      "##ious": 570,
      "##ace": 571,
      "201": 572,
      "res": 573,
      "sc": 574,
      "more": 575,
      "##du": 576,
      "##vel": 577,
      "they": 578,
      "##als": 579,
      "bu": 580,
      "##ied": 581,
      "##reat": 582,
      "reg": 583,
      "##resent": 584,
      "team": 585,
      "##ll": 586,
      "##oun": 587,
      "div": 588,
      "##ey": 589,
      "##ced": 590,
      "##ence": 591,
      "##ational": 592,
      "Un": 593,
      "after": 594,
      "go": 595,
      "oper": 596,
      "pre": 597,
      "us": 598,
      "##port": 599,
      "##ree": 600,
      "char": 601,
      "##round": 602,
      "ag": 603,
      "##orm": 604,
      "rem": 605,
      "time": 606,
      "She": 607,
      "ad": 608,
      "##lay": 609,
      "##ub": 610,
      "##ower": 611,
      "work": 612,
      "Th": 613,
      "ev": 614,
      "##air": 615,
      "##ik": 616,
      "##nder": 617,
      "##ict": 618,
      "##ters": 619,
      "##ular": 620,
      "bec": 621,
      "fl": 622,
      "##ond": 623,
      "##ents": 624,
      "##iss": 625,
      "##oth": 626,
      "##age": 627,
      "ship": 628,
      "into": 629,
      "Val": 630,
      "##iation": 631,
      "##ets": 632,
      "##able": 633,
      "could": 634,
      "up": 635,
      "##ern": 636,
      "##ittle": 637,
      "##ick": 638,
      "##oll": 639,
      "200": 640,
      "includ": 641,
      "co": 642,
      "##ib": 643,
      "##ater": 644,
      "##ited": 645,
      "than": 646,
      "##umb": 647,
      "##rib": 648,
      "##rough": 649,
      "season": 650,
      "dis": 651,
      "most": 652,
      "##ons": 653,
      "##ased": 654,
      "##urn": 655,
      "##own": 656,
      "been": 657,
      "cons": 658,
      "##ria": 659,
      "Valky": 660,
      "##au": 661,
      "##ss": 662,
      "these": 663,
      "##ors": 664,
      "##ical": 665,
      "##ung": 666,
      "new": 667,
      "Col": 668,
      "four": 669,
      "##way": 670,
      "##fer": 671,
      "##erm": 672,
      "##red": 673,
      "inter": 674,
      "##ific": 675,
      "spec": 676,
      "An": 677,
      "during": 678,
      "ear": 679,
      "hum": 680,
      "ob": 681,
      "some": 682,
      "##ress": 683,
      "##wn": 684,
      "##ved": 685,
      "##form": 686,
      "##etw": 687,
      "only": 688,
      "Valkyria": 689,
      "Little": 690,
      "can": 691,
      "fe": 692,
      "fin": 693,
      "me": 694,
      "ro": 695,
      "##een": 696,
      "##ix": 697,
      "##bum": 698,
      "##ener": 699,
      "##ite": 700,
      "being": 701,
      "album": 702,
      "Ne": 703,
      "aer": 704,
      "under": 705,
      "##der": 706,
      "##ates": 707,
      "##outh": 708,
      "##ake": 709,
      "when": 710,
      "charac": 711,
      "At": 712,
      "Am": 713,
      "Rock": 714,
      "no": 715,
      "out": 716,
      "through": 717,
      "ass": 718,
      "##emp": 719,
      "att": 720,
      "many": 721,
      "cent": 722,
      "sa": 723,
      "would": 724,
      "##fore": 725,
      "##ise": 726,
      "##ilot": 727,
      "such": 728,
      "divine": 729,
      "Bl": 730,
      "Blu": 731,
      "##ted": 732,
      "##oh": 733,
      "##sen": 734,
      "##arker": 735,
      "##etween": 736,
      "acc": 737,
      "so": 738,
      "##ez": 739,
      "199": 740,
      "Jack": 741,
      "ma": 742,
      "tra": 743,
      "##ces": 744,
      "dep": 745,
      "represent": 746,
      "##ike": 747,
      "Cull": 748,
      "Re": 749,
      "bel": 750,
      "sy": 751,
      "sm": 752,
      "##HL": 753,
      "##ase": 754,
      "##eld": 755,
      "192": 756,
      "trans": 757,
      "record": 758,
      "Cullen": 759,
      "Barker": 760,
      "King": 761,
      "ac": 762,
      "my": 763,
      "made": 764,
      "##ail": 765,
      "##oy": 766,
      "##ished": 767,
      "##though": 768,
      "am": 769,
      "between": 770,
      "ind": 771,
      "##ee": 772,
      "##ens": 773,
      "##other": 774,
      "##ember": 775,
      "##ards": 776,
      "arm": 777,
      "Columb": 778,
      "Blue": 779,
      "end": 780,
      "ret": 781,
      "sec": 782,
      "##ose": 783,
      "##ud": 784,
      "##ating": 785,
      "##ann": 786,
      "##icles": 787,
      "##odrom": 788,
      "191": 789,
      "design": 790,
      "##ilding": 791,
      "##velop": 792,
      "##senal": 793,
      "Jackets": 794,
      "Fern": 795,
      "UK": 796,
      "dif": 797,
      "him": 798,
      "poin": 799,
      "sign": 800,
      "##ran": 801,
      "##eb": 802,
      "##gan": 803,
      "inst": 804,
      "##ice": 805,
      "##rop": 806,
      "##ollow": 807,
      "##igin": 808,
      "##andez": 809,
      "##ction": 810,
      "world": 811,
      "##ized": 812,
      "Fernandez": 813,
      "Aust": 814,
      "pers": 815,
      "##sp": 816,
      "there": 817,
      "##one": 818,
      "before": 819,
      "develop": 820,
      "about": 821,
      "belie": 822,
      "giv": 823,
      "gun": 824,
      "gold": 825,
      "main": 826,
      "mov": 827,
      "##ah": 828,
      "##viation": 829,
      "##ind": 830,
      "tow": 831,
      "##amp": 832,
      "while": 833,
      "supp": 834,
      "##iew": 835,
      "relig": 836,
      "186": 837,
      "000": 838,
      "15": 839,
      "cre": 840,
      "call": 841,
      "em": 842,
      "mon": 843,
      "serv": 844,
      "temp": 845,
      "war": 846,
      "##ert": 847,
      "##ered": 848,
      "##ilt": 849,
      "three": 850,
      "##tern": 851,
      "##istic": 852,
      "origin": 853,
      "##osed": 854,
      "Chron": 855,
      "where": 856,
      "again": 857,
      "remain": 858,
      "##ubl": 859,
      "small": 860,
      "Columbus": 861,
      "Chronicles": 862,
      "games": 863,
      "kn": 864,
      "mil": 865,
      "pilot": 866,
      "sur": 867,
      "##dition": 868,
      "##ual": 869,
      "##ism": 870,
      "##ised": 871,
      "##ily": 872,
      "exp": 873,
      "used": 874,
      "CA": 875,
      "II": 876,
      "NHL": 877,
      "Se": 878,
      "both": 879,
      "dec": 880,
      "est": 881,
      "fly": 882,
      "gl": 883,
      "loc": 884,
      "like": 885,
      "pos": 886,
      "##cial": 887,
      "##hen": 888,
      "##ang": 889,
      "##row": 890,
      "##ety": 891,
      "##ived": 892,
      "##ays": 893,
      "##ected": 894,
      "eng": 895,
      "class": 896,
      "partic": 897,
      "appear": 898,
      "operations": 899,
      "aerodrom": 900,
      "character": 901,
      "On": 902,
      "bl": 903,
      "##dom": 904,
      "##ood": 905,
      "##ook": 906,
      "##hes": 907,
      "##orth": 908,
      "##its": 909,
      "##omen": 910,
      "rev": 911,
      "##avy": 912,
      "human": 913,
      "Black": 914,
      "Al": 915,
      "All": 916,
      "bat": 917,
      "doll": 918,
      "follow": 919,
      "lar": 920,
      "min": 921,
      "##ren": 922,
      "##eop": 923,
      "##led": 924,
      "##con": 925,
      "##ath": 926,
      "##umber": 927,
      "rele": 928,
      "played": 929,
      "Ark": 930,
      "desc": 931,
      "activ": 932,
      "##layer": 933,
      "This": 934,
      "dollar": 935,
      "Brit": 936,
      "Joh": 937,
      "Ma": 938,
      "bro": 939,
      "publ": 940,
      "same": 941,
      "inv": 942,
      "##ask": 943,
      "There": 944,
      "##iver": 945,
      "def": 946,
      "produ": 947,
      "perform": 948,
      "contin": 949,
      "second": 950,
      "Car": 951,
      "back": 952,
      "dist": 953,
      "writ": 954,
      "##ring": 955,
      "##ton": 956,
      "##up": 957,
      "##por": 958,
      "##int": 959,
      "##atory": 960,
      "start": 961,
      "##cept": 962,
      "198": 963,
      "##ife": 964,
      "trad": 965,
      "rece": 966,
      "Kingdom": 967,
      "Le": 968,
      "Slayer": 969,
      "long": 970,
      "number": 971,
      "song": 972,
      "well": 973,
      "##aw": 974,
      "##ier": 975,
      "##ield": 976,
      "##ued": 977,
      "##orn": 978,
      "##ork": 979,
      "##ank": 980,
      "##ister": 981,
      "##elf": 982,
      "##oci": 983,
      "said": 984,
      "Blackie": 985,
      "Wh": 986,
      "each": 987,
      "gener": 988,
      "hel": 989,
      "met": 990,
      "power": 991,
      "sing": 992,
      "##ty": 993,
      "##oot": 994,
      "##ck": 995,
      "##man": 996,
      "##ercial": 997,
      "##ision": 998,
      "##reak": 999,
      "##omm": 1000,
      "They": 1001,
      "deity": 1002,
      "import": 1003,
      "built": 1004,
      "became": 1005,
      "person": 1006,
      "called": 1007,
      "Fair": 1008,
      "South": 1009,
      "War": 1010,
      "crit": 1011,
      "hist": 1012,
      "later": 1013,
      "ph": 1014,
      "win": 1015,
      "##ship": 1016,
      "##lant": 1017,
      "##ped": 1018,
      "##atic": 1019,
      "##atur": 1020,
      "##ects": 1021,
      "##ivil": 1022,
      "##ively": 1023,
      "although": 1024,
      "##vern": 1025,
      "sub": 1026,
      "sever": 1027,
      "##ments": 1028,
      "prev": 1029,
      "obs": 1030,
      "against": 1031,
      "Arkans": 1032,
      "John": 1033,
      "As": 1034,
      "Air": 1035,
      "down": 1036,
      "pur": 1037,
      "we": 1038,
      "##ever": 1039,
      "##apt": 1040,
      "##ually": 1041,
      "often": 1042,
      "##ash": 1043,
      "##rol": 1044,
      "along": 1045,
      "any": 1046,
      "##aven": 1047,
      "order": 1048,
      "contr": 1049,
      "Egyptians": 1050,
      "offic": 1051,
      "including": 1052,
      "early": 1053,
      "describ": 1054,
      "British": 1055,
      "Arkansas": 1056,
      "De": 1057,
      "Sp": 1058,
      "do": 1059,
      "po": 1060,
      "##eg": 1061,
      "##ny": 1062,
      "##gg": 1063,
      "##ble": 1064,
      "##jor": 1065,
      "##ature": 1066,
      "##ange": 1067,
      "inf": 1068,
      "##ired": 1069,
      "iss": 1070,
      "##ified": 1071,
      "##ccess": 1072,
      "years": 1073,
      "resp": 1074,
      "##ount": 1075,
      "##urned": 1076,
      "New": 1077,
      "Atlant": 1078,
      "myth": 1079,
      "points": 1080,
      "glid": 1081,
      "12": 1082,
      "13": 1083,
      "Hung": 1084,
      "Ra": 1085,
      "did": 1086,
      "found": 1087,
      "op": 1088,
      "own": 1089,
      "##ray": 1090,
      "##rist": 1091,
      "##dess": 1092,
      "##land": 1093,
      "##field": 1094,
      "##ined": 1095,
      "##arian": 1096,
      "##roy": 1097,
      "##ivate": 1098,
      "requ": 1099,
      "##owever": 1100,
      "goddess": 1101,
      "##lub": 1102,
      "art": 1103,
      "lead": 1104,
      "imp": 1105,
      "regul": 1106,
      "flying": 1107,
      "particular": 1108,
      "observ": 1109,
      "Ad": 1110,
      "After": 1111,
      "Con": 1112,
      "En": 1113,
      "Su": 1114,
      "around": 1115,
      "coin": 1116,
      "high": 1117,
      "mod": 1118,
      "##uth": 1119,
      "##ins": 1120,
      "##ather": 1121,
      "##ative": 1122,
      "##itary": 1123,
      "##str": 1124,
      "stand": 1125,
      "##raph": 1126,
      "place": 1127,
      "success": 1128,
      "##ights": 1129,
      "commercial": 1130,
      "##ought": 1131,
      "United": 1132,
      "##ribut": 1133,
      "differ": 1134,
      "following": 1135,
      "single": 1136,
      "several": 1137,
      "Atlanta": 1138,
      "Flow": 1139,
      "Nov": 1140,
      "Tower": 1141,
      "Zr": 1142,
      "fam": 1143,
      "great": 1144,
      "mu": 1145,
      "may": 1146,
      "ser": 1147,
      "##eer": 1148,
      "##iod": 1149,
      "##ines": 1150,
      "##ince": 1151,
      "##eder": 1152,
      "##itu": 1153,
      "##ale": 1154,
      "##rew": 1155,
      "##read": 1156,
      "These": 1157,
      "stru": 1158,
      "dem": 1159,
      "conn": 1160,
      "##isted": 1161,
      "##usic": 1162,
      "Christ": 1163,
      "incre": 1164,
      "##irect": 1165,
      "##ission": 1166,
      "tower": 1167,
      "important": 1168,
      "10": 1169,
      "Bu": 1170,
      "Go": 1171,
      "Is": 1172,
      "Navy": 1173,
      "gu": 1174,
      "los": 1175,
      "prom": 1176,
      "rest": 1177,
      "term": 1178,
      "##ward": 1179,
      "##0s": 1180,
      "##íny": 1181,
      "then": 1182,
      "##iness": 1183,
      "##eng": 1184,
      "##omet": 1185,
      "##ently": 1186,
      "within": 1187,
      "began": 1188,
      "state": 1189,
      "conc": 1190,
      "##ope": 1191,
      "child": 1192,
      "prov": 1193,
      "track": 1194,
      "Ital": 1195,
      "scor": 1196,
      "building": 1197,
      "ships": 1198,
      "##ible": 1199,
      "role": 1200,
      "development": 1201,
      "pilots": 1202,
      "aerodromes": 1203,
      "##eople": 1204,
      "previous": 1205,
      "Hungarian": 1206,
      "Zríny": 1207,
      "Zrínyi": 1208,
      "May": 1209,
      "Sh": 1210,
      "aviation": 1211,
      "day": 1212,
      "id": 1213,
      "mem": 1214,
      "name": 1215,
      "national": 1216,
      "pat": 1217,
      "pop": 1218,
      "port": 1219,
      "women": 1220,
      "##app": 1221,
      "##line": 1222,
      "##ps": 1223,
      "##xt": 1224,
      "##ional": 1225,
      "##ross": 1226,
      "##ilm": 1227,
      "##ility": 1228,
      "##stem": 1229,
      "##ury": 1230,
      "real": 1231,
      "##ociation": 1232,
      "ann": 1233,
      "194": 1234,
      "##ried": 1235,
      "comb": 1236,
      "##aged": 1237,
      "##ages": 1238,
      "##ruit": 1239,
      "Arsenal": 1240,
      "Heaven": 1241,
      "even": 1242,
      "##ause": 1243,
      "transport": 1244,
      "Austro": 1245,
      "given": 1246,
      "support": 1247,
      "military": 1248,
      "tradition": 1249,
      "received": 1250,
      "##ociety": 1251,
      "described": 1252,
      "open": 1253,
      "##uthor": 1254,
      "Flower": 1255,
      "November": 1256,
      "17": 1257,
      "Ass": 1258,
      "Ind": 1259,
      "cal": 1260,
      "el": 1261,
      "ele": 1262,
      "equ": 1263,
      "fung": 1264,
      "just": 1265,
      "live": 1266,
      "last": 1267,
      "life": 1268,
      "present": 1269,
      "somet": 1270,
      "##ric": 1271,
      "##rum": 1272,
      "##yp": 1273,
      "##ym": 1274,
      "##ug": 1275,
      "##ues": 1276,
      "##bia": 1277,
      "##pl": 1278,
      "##par": 1279,
      "##eric": 1280,
      "##aria": 1281,
      "took": 1282,
      "##ouse": 1283,
      "##aced": 1284,
      "##amed": 1285,
      "##eter": 1286,
      "##ained": 1287,
      "##ector": 1288,
      "##aking": 1289,
      "##abl": 1290,
      "common": 1291,
      "command": 1292,
      "2011": 1293,
      "result": 1294,
      "goal": 1295,
      "consid": 1296,
      "species": 1297,
      "believed": 1298,
      "original": 1299,
      "CAA": 1300,
      "critic": 1301,
      "series": 1302,
      "Er": 1303,
      "Sc": 1304,
      "creat": 1305,
      "foot": 1306,
      "mask": 1307,
      "par": 1308,
      "sk": 1309,
      "sch": 1310,
      "##ral": 1311,
      "##rid": 1312,
      "##ting": 1313,
      "##til": 1314,
      "##tend": 1315,
      "##off": 1316,
      "##let": 1317,
      "##cl": 1318,
      "##ful": 1319,
      "##zher": 1320,
      "##zog": 1321,
      "##ink": 1322,
      "##ining": 1323,
      "##ars": 1324,
      "##ret": 1325,
      "##omb": 1326,
      "##oman": 1327,
      "##olog": 1328,
      "##olved": 1329,
      "anim": 1330,
      "another": 1331,
      "193": 1332,
      "##ement": 1333,
      "##ording": 1334,
      "player": 1335,
      "##hips": 1336,
      "career": 1337,
      "Amun": 1338,
      "major": 1339,
      "system": 1340,
      "temples": 1341,
      "establ": 1342,
      "local": 1343,
      "Fairies": 1344,
      "history": 1345,
      "family": 1346,
      "Erzher": 1347,
      "Erzherzog": 1348,
      "Feb": 1349,
      "Gre": 1350,
      "Gam": 1351,
      "Some": 1352,
      "cert": 1353,
      "dest": 1354,
      "due": 1355,
      "grou": 1356,
      "lim": 1357,
      "mm": 1358,
      "near": 1359,
      "set": 1360,
      "var": 1361,
      "##din": 1362,
      "##ner": 1363,
      "##ged": 1364,
      "##und": 1365,
      "##fic": 1366,
      "##ford": 1367,
      "##pos": 1368,
      "##ination": 1369,
      "##orld": 1370,
      "##roop": 1371,
      "##ird": 1372,
      "##ives": 1373,
      "##odies": 1374,
      "##ided": 1375,
      "deal": 1376,
      "##imes": 1377,
      "plan": 1378,
      "prot": 1379,
      "##abor": 1380,
      "##ruary": 1381,
      "arsenal": 1382,
      "period": 1383,
      "##ove": 1384,
      "##ograph": 1385,
      "compet": 1386,
      "carb": 1387,
      "cover": 1388,
      "Americ": 1389,
      "religion": 1390,
      "religious": 1391,
      "known": 1392,
      "larg": 1393,
      "activities": 1394,
      "##ports": 1395,
      "influ": 1396,
      "different": 1397,
      "February": 1398,
      "24": 1399,
      "Ap": 1400,
      "Be": 1401,
      "But": 1402,
      "Comm": 1403,
      "Hor": 1404,
      "Light": 1405,
      "World": 1406,
      "author": 1407,
      "bo": 1408,
      "based": 1409,
      "came": 1410,
      "coll": 1411,
      "civil": 1412,
      "del": 1413,
      "fel": 1414,
      "film": 1415,
      "grow": 1416,
      "light": 1417,
      "ou": 1418,
      "round": 1419,
      "use": 1420,
      "way": 1421,
      "##dn": 1422,
      "##te": 1423,
      "##io": 1424,
      "##ient": 1425,
      "##uary": 1426,
      "##bers": 1427,
      "##ball": 1428,
      "##ven": 1429,
      "##ense": 1430,
      "inch": 1431,
      "##ales": 1432,
      "##ices": 1433,
      "third": 1434,
      "##aces": 1435,
      "str": 1436,
      "stat": 1437,
      "stated": 1438,
      "allow": 1439,
      "##une": 1440,
      "##pted": 1441,
      "##cted": 1442,
      "##ague": 1443,
      "proc": 1444,
      "##ially": 1445,
      "##aps": 1446,
      "trade": 1447,
      "head": 1448,
      "govern": 1449,
      "guns": 1450,
      "review": 1451,
      "Max": 1452,
      "public": 1453,
      "While": 1454,
      "much": 1455,
      "Italian": 1456,
      "Gambia": 1457,
      "carbon": 1458,
      "Can": 1459,
      "Cal": 1460,
      "Fer": 1461,
      "Sen": 1462,
      "band": 1463,
      "foc": 1464,
      "fun": 1465,
      "hand": 1466,
      "lic": 1467,
      "miss": 1468,
      "make": 1469,
      "names": 1470,
      "six": 1471,
      "take": 1472,
      "##rant": 1473,
      "##ead": 1474,
      "##don": 1475,
      "##ob": 1476,
      "##ool": 1477,
      "##xts": 1478,
      "##II": 1479,
      "##SA": 1480,
      "##ery": 1481,
      "##ither": 1482,
      "##alf": 1483,
      "those": 1484,
      "##lex": 1485,
      "##ured": 1486,
      "stud": 1487,
      "shot": 1488,
      "until": 1489,
      "level": 1490,
      "##ize": 1491,
      "Union": 1492,
      "events": 1493,
      "disc": 1494,
      "humans": 1495,
      "training": 1496,
      "depict": 1497,
      "##space": 1498,
      "contract": 1499,
      "Building": 1500,
      "##roops": 1501,
      "carbonaria": 1502,
      "11": 1503,
      "Aviation": 1504,
      "During": 1505,
      "Eu": 1506,
      "For": 1507,
      "Jan": 1508,
      "James": 1509,
      "break": 1510,
      "count": 1511,
      "det": 1512,
      "direct": 1513,
      "ever": 1514,
      "fruit": 1515,
      "hour": 1516,
      "less": 1517,
      "named": 1518,
      "post": 1519,
      "sister": 1520,
      "troops": 1521,
      "##rict": 1522,
      "##ep": 1523,
      "##eal": 1524,
      "##az": 1525,
      "##ying": 1526,
      "##son": 1527,
      "##ior": 1528,
      "##ve": 1529,
      "##ves": 1530,
      "##ject": 1531,
      "##MS": 1532,
      "##esp": 1533,
      "##ator": 1534,
      "##ists": 1535,
      "##ached": 1536,
      "ref": 1537,
      "beh": 1538,
      "##umm": 1539,
      "##isting": 1540,
      "##uss": 1541,
      "##ection": 1542,
      "spe": 1543,
      "worship": 1544,
      "##quad": 1545,
      "##ockey": 1546,
      "need": 1547,
      "States": 1548,
      "addition": 1549,
      "include": 1550,
      "represented": 1551,
      "designed": 1552,
      "##ranch": 1553,
      "III": 1554,
      "released": 1555,
      "members": 1556,
      "considered": 1557,
      "##dinand": 1558,
      "##ficult": 1559,
      "Horus": 1560,
      "outs": 1561,
      "Ferdinand": 1562,
      "focus": 1563,
      "Europ": 1564,
      "88": 1565,
      "Ed": 1566,
      "Pr": 1567,
      "Ph": 1568,
      "SMS": 1569,
      "cup": 1570,
      "den": 1571,
      "draft": 1572,
      "eff": 1573,
      "franch": 1574,
      "iron": 1575,
      "km": 1576,
      "mor": 1577,
      "mult": 1578,
      "mother": 1579,
      "music": 1580,
      "nature": 1581,
      "pass": 1582,
      "pound": 1583,
      "people": 1584,
      "qu": 1585,
      "sent": 1586,
      "sun": 1587,
      "since": 1588,
      "##eor": 1589,
      "##ai": 1590,
      "##sel": 1591,
      "##mb": 1592,
      "##ks": 1593,
      "##ara": 1594,
      "##arl": 1595,
      "##arch": 1596,
      "##rodu": 1597,
      "##roll": 1598,
      "##ott": 1599,
      "##olo": 1600,
      "##oles": 1601,
      "death": 1602,
      "##ript": 1603,
      "sugg": 1604,
      "prof": 1605,
      "others": 1606,
      "texts": 1607,
      "theme": 1608,
      "private": 1609,
      "forms": 1610,
      "##ways": 1611,
      "specific": 1612,
      "attem": 1613,
      "maat": 1614,
      "difficult": 1615,
      "belief": 1616,
      "month": 1617,
      "position": 1618,
      "block": 1619,
      "continued": 1620,
      "Eng": 1621,
      "##ituals": 1622,
      "Association": 1623,
      "fungus": 1624,
      "##ombard": 1625,
      "American": 1626,
      "franchise": 1627,
      "23": 1628,
      "And": 1629,
      "Gener": 1630,
      "Her": 1631,
      "However": 1632,
      "June": 1633,
      "Man": 1634,
      "Most": 1635,
      "National": 1636,
      "US": 1637,
      "With": 1638,
      "When": 1639,
      "away": 1640,
      "bas": 1641,
      "bus": 1642,
      "best": 1643,
      "cult": 1644,
      "ft": 1645,
      "five": 1646,
      "fire": 1647,
      "home": 1648,
      "if": 1649,
      "land": 1650,
      "late": 1651,
      "men": 1652,
      "now": 1653,
      "old": 1654,
      "occ": 1655,
      "pra": 1656,
      "pri": 1657,
      "qual": 1658,
      "rif": 1659,
      "rituals": 1660,
      "sim": 1661,
      "turn": 1662,
      "##ram": 1663,
      "##ean": 1664,
      "##tles": 1665,
      "##ys": 1666,
      "##cy": 1667,
      "##cer": 1668,
      "##ont": 1669,
      "##ately": 1670,
      "##ances": 1671,
      "##roph": 1672,
      "##ention": 1673,
      "##ecess": 1674,
      "asp": 1675,
      "beg": 1676,
      "story": 1677,
      "##seum": 1678,
      "196": 1679,
      "airspace": 1680,
      "ent": 1681,
      "##illion": 1682,
      "times": 1683,
      "##ended": 1684,
      "carried": 1685,
      "appro": 1686,
      "2012": 1687,
      "feet": 1688,
      "featur": 1689,
      "##ixed": 1690,
      "characters": 1691,
      "throughout": 1692,
      "armor": 1693,
      "signed": 1694,
      "signific": 1695,
      "instrum": 1696,
      "remained": 1697,
      "estim": 1698,
      "appeared": 1699,
      "Although": 1700,
      "battle": 1701,
      "large": 1702,
      "produced": 1703,
      "required": 1704,
      "leading": 1705,
      "Conf": 1706,
      "Isis": 1707,
      "loss": 1708,
      "popular": 1709,
      "football": 1710,
      "established": 1711,
      "outside": 1712,
      "##ology": 1713,
      "General": 1714,
      "16": 1715,
      "Book": 1716,
      "Croy": 1717,
      "Club": 1718,
      "Gall": 1719,
      "Nash": 1720,
      "Os": 1721,
      "Play": 1722,
      "Rich": 1723,
      "River": 1724,
      "Roman": 1725,
      "Sav": 1726,
      "av": 1727,
      "cm": 1728,
      "cor": 1729,
      "col": 1730,
      "cru": 1731,
      "di": 1732,
      "held": 1733,
      "half": 1734,
      "kings": 1735,
      "lit": 1736,
      "mic": 1737,
      "nav": 1738,
      "opp": 1739,
      "pain": 1740,
      "red": 1741,
      "roles": 1742,
      "sold": 1743,
      "south": 1744,
      "sector": 1745,
      "tit": 1746,
      "typ": 1747,
      "##side": 1748,
      "##llu": 1749,
      "##co": 1750,
      "##ched": 1751,
      "##gress": 1752,
      "##play": 1753,
      "##med": 1754,
      "##FA": 1755,
      "##att": 1756,
      "##ene": 1757,
      "##ites": 1758,
      "inj": 1759,
      "##eless": 1760,
      "##irc": 1761,
      "##urther": 1762,
      "still": 1763,
      "condu": 1764,
      "195": 1765,
      "##aving": 1766,
      "suff": 1767,
      "airfield": 1768,
      "airports": 1769,
      "prop": 1770,
      "never": 1771,
      "next": 1772,
      "##ustry": 1773,
      "control": 1774,
      "relations": 1775,
      "commun": 1776,
      "pred": 1777,
      "prim": 1778,
      "complet": 1779,
      "offer": 1780,
      "adv": 1781,
      "becom": 1782,
      "flight": 1783,
      "final": 1784,
      "noise": 1785,
      "returned": 1786,
      "creation": 1787,
      "##istics": 1788,
      "surround": 1789,
      "CAT": 1790,
      "battles": 1791,
      "release": 1792,
      "involved": 1793,
      "Carey": 1794,
      "written": 1795,
      "weap": 1796,
      "struck": 1797,
      "Christian": 1798,
      "India": 1799,
      "elements": 1800,
      "maskray": 1801,
      "group": 1802,
      "limited": 1803,
      "felt": 1804,
      "##dnance": 1805,
      "January": 1806,
      "suggest": 1807,
      "Confeder": 1808,
      "Croydon": 1809,
      "##llustr": 1810,
      "conducted": 1811,
      "Aug": 1812,
      "EA": 1813,
      "Got": 1814,
      "Mc": 1815,
      "Mu": 1816,
      "Mint": 1817,
      "Nam": 1818,
      "North": 1819,
      "Per": 1820,
      "Peng": 1821,
      "Rec": 1822,
      "San": 1823,
      "city": 1824,
      "club": 1825,
      "circ": 1826,
      "father": 1827,
      "illustr": 1828,
      "la": 1829,
      "pick": 1830,
      "range": 1831,
      "sky": 1832,
      "##oad": 1833,
      "##han": 1834,
      "##iber": 1835,
      "##cing": 1836,
      "##gor": 1837,
      "##bodies": 1838,
      "##ki": 1839,
      "##ken": 1840,
      "##atters": 1841,
      "##are": 1842,
      "init": 1843,
      "##ingal": 1844,
      "##ically": 1845,
      "##els": 1846,
      "##ilar": 1847,
      "##ilver": 1848,
      "##ilities": 1849,
      "though": 1850,
      "##ential": 1851,
      "##stru": 1852,
      "##leet": 1853,
      "##owled": 1854,
      "##ulation": 1855,
      "deb": 1856,
      "dev": 1857,
      "organ": 1858,
      "area": 1859,
      "chang": 1860,
      "Char": 1861,
      "Child": 1862,
      "inches": 1863,
      "players": 1864,
      "184": 1865,
      "introdu": 1866,
      "images": 1867,
      "action": 1868,
      "2013": 1869,
      "goals": 1870,
      "operation": 1871,
      "included": 1872,
      "##umbers": 1873,
      "##augh": 1874,
      "interact": 1875,
      "recorded": 1876,
      "across": 1877,
      "indic": 1878,
      "industry": 1879,
      "developed": 1880,
      "giving": 1881,
      "temple": 1882,
      "aerodrome": 1883,
      "published": 1884,
      "started": 1885,
      "general": 1886,
      "official": 1887,
      "increas": 1888,
      "restrict": 1889,
      "ide": 1890,
      "sometimes": 1891,
      "certain": 1892,
      "competition": 1893,
      "Lightning": 1894,
      "strong": 1895,
      "country": 1896,
      "business": 1897,
      "praised": 1898,
      "significant": 1899,
      "avail": 1900,
      "August": 1901,
      "EASA": 1902,
      "Pengu": 1903,
      "25": 1904,
      "Ab": 1905,
      "Aer": 1906,
      "Bat": 1907,
      "Bec": 1908,
      "Des": 1909,
      "Mac": 1910,
      "Or": 1911,
      "Pilot": 1912,
      "Sec": 1913,
      "Sch": 1914,
      "Society": 1915,
      "Way": 1916,
      "York": 1917,
      "cas": 1918,
      "dam": 1919,
      "ep": 1920,
      "either": 1921,
      "fem": 1922,
      "full": 1923,
      "free": 1924,
      "further": 1925,
      "fleet": 1926,
      "hold": 1927,
      "however": 1928,
      "low": 1929,
      "numbers": 1930,
      "put": 1931,
      "run": 1932,
      "slow": 1933,
      "tel": 1934,
      "vis": 1935,
      "youn": 1936,
      "##ril": 1937,
      "##aus": 1938,
      "##tain": 1939,
      "##ober": 1940,
      "##bo": 1941,
      "##jects": 1942,
      "##het": 1943,
      "##hest": 1944,
      "##orts": 1945,
      "##atter": 1946,
      "##itt": 1947,
      "##itive": 1948,
      "top": 1949,
      "##omp": 1950,
      "##iris": 1951,
      "force": 1952,
      "forces": 1953,
      "##ots": 1954,
      "##ures": 1955,
      "once": 1956,
      "refer": 1957,
      "without": 1958,
      "##idence": 1959,
      "##unition": 1960,
      "##ifest": 1961,
      "exc": 1962,
      "exper": 1963,
      "examp": 1964,
      "##ffic": 1965,
      "clos": 1966,
      "repl": 1967,
      "shell": 1968,
      "former": 1969,
      "2010": 1970,
      "using": 1971,
      "works": 1972,
      "become": 1973,
      "flights": 1974,
      "2006": 1975,
      "earl": 1976,
      "attack": 1977,
      "according": 1978,
      "Reg": 1979,
      "among": 1980,
      "##annah": 1981,
      "point": 1982,
      "emer": 1983,
      "originally": 1984,
      "black": 1985,
      "performed": 1986,
      "performance": 1987,
      "help": 1988,
      "phara": 1989,
      "purch": 1990,
      "poly": 1991,
      "issue": 1992,
      "observatory": 1993,
      "terms": 1994,
      "children": 1995,
      "scoring": 1996,
      "creator": 1997,
      "school": 1998,
      "##ridge": 1999,
      "planning": 2000,
      "larger": 2001,
      "behind": 2002,
      "##selves": 2003,
      "##rolled": 2004,
      "begin": 2005,
      "Osiris": 2006,
      "Savannah": 2007,
      "airfields": 2008,
      "Nameless": 2009,
      "Penguins": 2010,
      "young": 2011,
      "14": 2012,
      "21": 2013,
      "Aten": 2014,
      "By": 2015,
      "BC": 2016,
      "Co": 2017,
      "Civil": 2018,
      "Dec": 2019,
      "Ex": 2020,
      "Fl": 2021,
      "Fingal": 2022,
      "Geor": 2023,
      "Hist": 2024,
      "Hockey": 2025,
      "Jap": 2026,
      "Long": 2027,
      "Lank": 2028,
      "Par": 2029,
      "Sri": 2030,
      "Tr": 2031,
      "To": 2032,
      "Tw": 2033,
      "aff": 2034,
      "ball": 2035,
      "dread": 2036,
      "far": 2037,
      "join": 2038,
      "line": 2039,
      "lives": 2040,
      "mar": 2041,
      "mid": 2042,
      "mark": 2043,
      "pres": 2044,
      "sel": 2045,
      "self": 2046,
      "society": 2047,
      "size": 2048,
      "vers": 2049,
      "wid": 2050,
      "##eign": 2051,
      "##aff": 2052,
      "##yn": 2053,
      "##sc": 2054,
      "##self": 2055,
      "##ha": 2056,
      "##haw": 2057,
      "##ne": 2058,
      "##ness": 2059,
      "##national": 2060,
      "##lan": 2061,
      "##less": 2062,
      "##iers": 2063,
      "##cient": 2064,
      "##get": 2065,
      "##ground": 2066,
      "##fact": 2067,
      "##pite": 2068,
      "##ms": 2069,
      "##mon": 2070,
      "##ke": 2071,
      "##ked": 2072,
      "##inition": 2073,
      "##inations": 2074,
      "##atch": 2075,
      "##ened": 2076,
      "##enced": 2077,
      "##ences": 2078,
      "##ency": 2079,
      "##itar": 2080,
      "##itors": 2081,
      "##itted": 2082,
      "##aning": 2083,
      "##ingly": 2084,
      "things": 2085,
      "thought": 2086,
      "##acing": 2087,
      "foreign": 2088,
      "##iving": 2089,
      "##ivers": 2090,
      "##ote": 2091,
      "##ody": 2092,
      "##urt": 2093,
      "##urning": 2094,
      "star": 2095,
      "streak": 2096,
      "##thur": 2097,
      "conf": 2098,
      "##ute": 2099,
      "##ocal": 2100,
      "##riend": 2101,
      "##ctions": 2102,
      "##iple": 2103,
      "plain": 2104,
      "##aken": 2105,
      "extend": 2106,
      "##que": 2107,
      "State": 2108,
      "playoff": 2109,
      "clock": 2110,
      "Arm": 2111,
      "despite": 2112,
      "repair": 2113,
      "themselves": 2114,
      "pract": 2115,
      "above": 2116,
      "complex": 2117,
      "build": 2118,
      "##aterial": 2119,
      "international": 2120,
      "##ification": 2121,
      "Ancon": 2122,
      "few": 2123,
      "syn": 2124,
      "symb": 2125,
      "accept": 2126,
      "arms": 2127,
      "moved": 2128,
      "1862": 2129,
      "crew": 2130,
      "poss": 2131,
      "##iverse": 2132,
      "songs": 2133,
      "metres": 2134,
      "personal": 2135,
      "purpos": 2136,
      "goddesses": 2137,
      "impro": 2138,
      "standards": 2139,
      "##ederal": 2140,
      "connected": 2141,
      "Govern": 2142,
      "traditional": 2143,
      "destroy": 2144,
      "various": 2145,
      "influence": 2146,
      "growth": 2147,
      "allowed": 2148,
      "process": 2149,
      "licens": 2150,
      "every": 2151,
      "hours": 2152,
      "##ussion": 2153,
      "speed": 2154,
      "Private": 2155,
      "microl": 2156,
      "Sanford": 2157,
      "##owledge": 2158,
      "Japan": 2159,
      "Two": 2160,
      "dreadn": 2161,
      "Ancona": 2162,
      "symbol": 2163,
      "purposes": 2164,
      "28": 2165,
      "50": 2166,
      "500": 2167,
      "Cup": 2168,
      "Div": 2169,
      "FI": 2170,
      "Fred": 2171,
      "Fran": 2172,
      "Gu": 2173,
      "Geop": 2174,
      "How": 2175,
      "Its": 2176,
      "Lic": 2177,
      "M1": 2178,
      "Mem": 2179,
      "Mason": 2180,
      "March": 2181,
      "Ot": 2182,
      "Pope": 2183,
      "Patters": 2184,
      "Sim": 2185,
      "Vatic": 2186,
      "book": 2187,
      "cr": 2188,
      "cap": 2189,
      "cour": 2190,
      "dra": 2191,
      "econ": 2192,
      "fac": 2193,
      "fav": 2194,
      "flow": 2195,
      "gr": 2196,
      "how": 2197,
      "hear": 2198,
      "host": 2199,
      "king": 2200,
      "list": 2201,
      "lack": 2202,
      "link": 2203,
      "labor": 2204,
      "mag": 2205,
      "making": 2206,
      "million": 2207,
      "material": 2208,
      "nation": 2209,
      "oil": 2210,
      "pen": 2211,
      "pol": 2212,
      "rul": 2213,
      "rum": 2214,
      "squad": 2215,
      "tri": 2216,
      "vide": 2217,
      "##22": 2218,
      "##rill": 2219,
      "##ded": 2220,
      "##dle": 2221,
      "##ax": 2222,
      "##oom": 2223,
      "##yl": 2224,
      "##yx": 2225,
      "##ling": 2226,
      "##lock": 2227,
      "##xim": 2228,
      "##heistic": 2229,
      "##ores": 2230,
      "##ats": 2231,
      "##arely": 2232,
      "##reational": 2233,
      "##elph": 2234,
      "##irl": 2235,
      "##ament": 2236,
      "##ley": 2237,
      "##adelph": 2238,
      "##olars": 2239,
      "##urch": 2240,
      "reached": 2241,
      "staff": 2242,
      "##ime": 2243,
      "always": 2244,
      "##sequ": 2245,
      "197": 2246,
      "##ements": 2247,
      "##rie": 2248,
      "ordnance": 2249,
      "super": 2250,
      "show": 2251,
      "short": 2252,
      "##ective": 2253,
      "separ": 2254,
      "seven": 2255,
      "##akes": 2256,
      "##ief": 2257,
      "noted": 2258,
      "perc": 2259,
      "env": 2260,
      "Star": 2261,
      "playing": 2262,
      "189": 2263,
      "##astic": 2264,
      "manifest": 2265,
      "gameplay": 2266,
      "overall": 2267,
      "event": 2268,
      "consisted": 2269,
      "finally": 2270,
      "road": 2271,
      "access": 2272,
      "1998": 2273,
      "Reign": 2274,
      "1923": 2275,
      "transfer": 2276,
      "1918": 2277,
      "move": 2278,
      "##ampions": 2279,
      "created": 2280,
      "monitors": 2281,
      "served": 2282,
      "engine": 2283,
      "particip": 2284,
      "minor": 2285,
      "activity": 2286,
      "brother": 2287,
      "Carter": 2288,
      "distribut": 2289,
      "generally": 2290,
      "gliders": 2291,
      "particularly": 2292,
      "successful": 2293,
      "greater": 2294,
      "##issioned": 2295,
      "provided": 2296,
      "scored": 2297,
      "combined": 2298,
      "opening": 2299,
      "##ploy": 2300,
      "##clad": 2301,
      "##ography": 2302,
      "April": 2303,
      "determ": 2304,
      "ironclad": 2305,
      "profess": 2306,
      "Andrew": 2307,
      "estimated": 2308,
      "cruis": 2309,
      "naval": 2310,
      "surrounding": 2311,
      "Confederate": 2312,
      "Museum": 2313,
      "debut": 2314,
      "available": 2315,
      "Battle": 2316,
      "pharaoh": 2317,
      "FIFA": 2318,
      "Geopyx": 2319,
      "M18": 2320,
      "Patterson": 2321,
      "Vatican": 2322,
      "econom": 2323,
      "video": 2324,
      "##adelphia": 2325,
      "Geopyxis": 2326,
      "100": 2327,
      "Bar": 2328,
      "Bull": 2329,
      "Cl": 2330,
      "Cro": 2331,
      "Du": 2332,
      "Draft": 2333,
      "Each": 2334,
      "Gl": 2335,
      "His": 2336,
      "Im": 2337,
      "Kings": 2338,
      "Karl": 2339,
      "Med": 2340,
      "Miss": 2341,
      "Old": 2342,
      "Pol": 2343,
      "Pres": 2344,
      "Sa": 2345,
      "Sl": 2346,
      "Tre": 2347,
      "Tot": 2348,
      "base": 2349,
      "bombard": 2350,
      "coun": 2351,
      "cred": 2352,
      "caus": 2353,
      "er": 2354,
      "fans": 2355,
      "fixed": 2356,
      "friend": 2357,
      "gen": 2358,
      "ground": 2359,
      "hig": 2360,
      "house": 2361,
      "kg": 2362,
      "little": 2363,
      "necess": 2364,
      "pi": 2365,
      "ra": 2366,
      "sac": 2367,
      "situ": 2368,
      "silver": 2369,
      "tre": 2370,
      "vict": 2371,
      "wro": 2372,
      "wall": 2373,
      "water": 2374,
      "wife": 2375,
      "##rthur": 2376,
      "##eam": 2377,
      "##den": 2378,
      "##ae": 2379,
      "##aim": 2380,
      "##tation": 2381,
      "##oon": 2382,
      "##yle": 2383,
      "##hib": 2384,
      "##ns": 2385,
      "##ule": 2386,
      "##ving": 2387,
      "##vey": 2388,
      "##Arthur": 2389,
      "##Station": 2390,
      "##erick": 2391,
      "##inc": 2392,
      "##inct": 2393,
      "##inder": 2394,
      "##oric": 2395,
      "##ories": 2396,
      "##orial": 2397,
      "##orpor": 2398,
      "##ese": 2399,
      "##anced": 2400,
      "insp": 2401,
      "##asy": 2402,
      "too": 2403,
      "##icop": 2404,
      "##eling": 2405,
      "threat": 2406,
      "##acre": 2407,
      "##acles": 2408,
      "##stant": 2409,
      "##etter": 2410,
      "##ivid": 2411,
      "##urre": 2412,
      "ones": 2413,
      "##ident": 2414,
      "##iest": 2415,
      "##throp": 2416,
      "##rand": 2417,
      "conver": 2418,
      "constru": 2419,
      "##och": 2420,
      "##ptember": 2421,
      "##osm": 2422,
      "placed": 2423,
      "shif": 2424,
      "shap": 2425,
      "##pper": 2426,
      "##ecting": 2427,
      "##ectively": 2428,
      "seen": 2429,
      "##abit": 2430,
      "##ably": 2431,
      "##aper": 2432,
      "heavy": 2433,
      "##quel": 2434,
      "recreational": 2435,
      "arg": 2436,
      "perm": 2437,
      "controlled": 2438,
      "##ills": 2439,
      "188": 2440,
      "closed": 2441,
      "Art": 2442,
      "##oute": 2443,
      "leg": 2444,
      "left": 2445,
      "themed": 2446,
      "formed": 2447,
      "##aching": 2448,
      "region": 2449,
      "register": 2450,
      "usually": 2451,
      "worked": 2452,
      "flo": 2453,
      "upon": 2454,
      "2009": 2455,
      "2007": 2456,
      "2008": 2457,
      "mostly": 2458,
      "newly": 2459,
      "interv": 2460,
      "special": 2461,
      "earth": 2462,
      "means": 2463,
      "meaning": 2464,
      "assign": 2465,
      "saf": 2466,
      "Blood": 2467,
      "1990": 2468,
      "acqu": 2469,
      "individ": 2470,
      "himself": 2471,
      "employ": 2472,
      "services": 2473,
      "September": 2474,
      "located": 2475,
      "engaged": 2476,
      "appearance": 2477,
      "continue": 2478,
      "League": 2479,
      "helicop": 2480,
      "Aircraft": 2481,
      "##aptain": 2482,
      "officers": 2483,
      "respons": 2484,
      "myths": 2485,
      "glider": 2486,
      "gliding": 2487,
      "regulation": 2488,
      "losing": 2489,
      "patron": 2490,
      "pattern": 2491,
      "caliber": 2492,
      "equip": 2493,
      "goaltend": 2494,
      "nearly": 2495,
      "missions": 2496,
      "fruitbodies": 2497,
      "European": 2498,
      "blockade": 2499,
      "occur": 2500,
      "prior": 2501,
      "rifles": 2502,
      "similar": 2503,
      "PlayStation": 2504,
      "oppos": 2505,
      "types": 2506,
      "proposed": 2507,
      "offerings": 2508,
      "battleships": 2509,
      "weapons": 2510,
      "MacArthur": 2511,
      "##ittee": 2512,
      "example": 2513,
      "beginning": 2514,
      "Georg": 2515,
      "Longacre": 2516,
      "Army": 2517,
      "Frederick": 2518,
      "favor": 2519,
      "rumors": 2520,
      "professional": 2521,
      "wrote": 2522,
      "goaltender": 2523,
      "26": 2524,
      "30": 2525,
      "31": 2526,
      "38": 2527,
      "45": 2528,
      "71": 2529,
      "Af": 2530,
      "Acc": 2531,
      "Bro": 2532,
      "Cent": 2533,
      "Dor": 2534,
      "Dun": 2535,
      "Fly": 2536,
      "God": 2537,
      "Hath": 2538,
      "House": 2539,
      "Mas": 2540,
      "Mary": 2541,
      "Pit": 2542,
      "People": 2543,
      "Red": 2544,
      "Rel": 2545,
      "Rick": 2546,
      "Roy": 2547,
      "Ser": 2548,
      "Set": 2549,
      "Tor": 2550,
      "Wal": 2551,
      "Wee": 2552,
      "Work": 2553,
      "award": 2554,
      "ba": 2555,
      "bon": 2556,
      "bill": 2557,
      "brough": 2558,
      "bene": 2559,
      "brie": 2560,
      "cle": 2561,
      "cul": 2562,
      "camp": 2563,
      "cosm": 2564,
      "don": 2565,
      "days": 2566,
      "ess": 2567,
      "fre": 2568,
      "fif": 2569,
      "fron": 2570,
      "fact": 2571,
      "fail": 2572,
      "give": 2573,
      "gave": 2574,
      "hor": 2575,
      "happ": 2576,
      "having": 2577,
      "ly": 2578,
      "lay": 2579,
      "lif": 2580,
      "mer": 2581,
      "med": 2582,
      "mus": 2583,
      "must": 2584,
      "might": 2585,
      "north": 2586,
      "ren": 2587,
      "rank": 2588,
      "rarely": 2589,
      "route": 2590,
      "sol": 2591,
      "says": 2592,
      "tied": 2593,
      "won": 2594,
      "wing": 2595,
      "want": 2596,
      "Æst": 2597,
      "##rack": 2598,
      "##eff": 2599,
      "##day": 2600,
      "##aos": 2601,
      "##ole": 2602,
      "##well": 2603,
      "##worth": 2604,
      "##hing": 2605,
      "##nall": 2606,
      "##lic": 2607,
      "##ii": 2608,
      "##iel": 2609,
      "##iate": 2610,
      "##ience": 2611,
      "##ga": 2612,
      "##uck": 2613,
      "##ufact": 2614,
      "##br": 2615,
      "##bur": 2616,
      "##fly": 2617,
      "##ping": 2618,
      "##me": 2619,
      "##munition": 2620,
      "##ze": 2621,
      "##Kay": 2622,
      "##here": 2623,
      "##ina": 2624,
      "##onal": 2625,
      "##estern": 2626,
      "##ata": 2627,
      "##atis": 2628,
      "##ena": 2629,
      "##ared": 2630,
      "##ital": 2631,
      "##itable": 2632,
      "tot": 2633,
      "##omin": 2634,
      "##omination": 2635,
      "##ival": 2636,
      "##adet": 2637,
      "##urr": 2638,
      "reason": 2639,
      "##iding": 2640,
      "stage": 2641,
      "##rain": 2642,
      "conce": 2643,
      "##ution": 2644,
      "ancient": 2645,
      "190": 2646,
      "##eman": 2647,
      "##ership": 2648,
      "##ption": 2649,
      "##ush": 2650,
      "##anded": 2651,
      "##osp": 2652,
      "##ateur": 2653,
      "##orted": 2654,
      "##ighter": 2655,
      "chance": 2656,
      "change": 2657,
      "chaos": 2658,
      "proble": 2659,
      "spir": 2660,
      "spent": 2661,
      "exist": 2662,
      "except": 2663,
      "word": 2664,
      "##arded": 2665,
      "recog": 2666,
      "neg": 2667,
      "##order": 2668,
      "incorpor": 2669,
      "units": 2670,
      "close": 2671,
      "claim": 2672,
      "fired": 2673,
      "manufact": 2674,
      "acting": 2675,
      "##endent": 2676,
      "appl": 2677,
      "##nington": 2678,
      "2014": 2679,
      "adapt": 2680,
      "That": 2681,
      "because": 2682,
      "flint": 2683,
      "##othy": 2684,
      "##ibr": 2685,
      "##ibility": 2686,
      "##ressed": 2687,
      "cancer": 2688,
      "meet": 2689,
      "albums": 2690,
      "travel": 2691,
      "depart": 2692,
      "myst": 2693,
      "ammunition": 2694,
      "amateur": 2695,
      "return": 2696,
      "##anned": 2697,
      "instead": 2698,
      "Austral": 2699,
      "maintain": 2700,
      "movement": 2701,
      "towards": 2702,
      "##iews": 2703,
      "1861": 2704,
      "service": 2705,
      "remaining": 2706,
      "miles": 2707,
      "characteristics": 2708,
      "One": 2709,
      "broad": 2710,
      "##aska": 2711,
      "defense": 2712,
      "definition": 2713,
      "##awa": 2714,
      "Fairy": 2715,
      "##atural": 2716,
      "subject": 2717,
      "Spring": 2718,
      "issued": 2719,
      "owned": 2720,
      "observations": 2721,
      "coins": 2722,
      "modern": 2723,
      "demon": 2724,
      "guitar": 2725,
      "combinations": 2726,
      "resulted": 2727,
      "##ological": 2728,
      "majority": 2729,
      "Gregor": 2730,
      "collabor": 2731,
      "depicted": 2732,
      "refl": 2733,
      "Phil": 2734,
      "multiple": 2735,
      "attempt": 2736,
      "attempted": 2737,
      "beliefs": 2738,
      "turns": 2739,
      "aspects": 2740,
      "entire": 2741,
      "featured": 2742,
      "instruments": 2743,
      "Gallian": 2744,
      "color": 2745,
      "redu": 2746,
      "soldiers": 2747,
      "communic": 2748,
      "primary": 2749,
      "completed": 2750,
      "McKay": 2751,
      "Record": 2752,
      "Children": 2753,
      "introduced": 2754,
      "increasingly": 2755,
      "Second": 2756,
      "damaged": 2757,
      "##hetic": 2758,
      "exclud": 2759,
      "earlier": 2760,
      "Atenism": 2761,
      "Howson": 2762,
      "Licence": 2763,
      "facilities": 2764,
      "Bulloch": 2765,
      "Totten": 2766,
      "bombardment": 2767,
      "shaped": 2768,
      "registered": 2769,
      "opposite": 2770,
      "According": 2771,
      "Dorothy": 2772,
      "Dunnington": 2773,
      "Hathor": 2774,
      "brought": 2775,
      "Æsthetic": 2776,
      "##worthiness": 2777,
      "recogn": 2778,
      "Gregorian": 2779,
      "22": 2780,
      "27": 2781,
      "400": 2782,
      "Aw": 2783,
      "Act": 2784,
      "Captain": 2785,
      "Dah": 2786,
      "Em": 2787,
      "Ear": 2788,
      "Follow": 2789,
      "Game": 2790,
      "Great": 2791,
      "Germ": 2792,
      "Hen": 2793,
      "Har": 2794,
      "Hit": 2795,
      "Hun": 2796,
      "High": 2797,
      "Hart": 2798,
      "Hann": 2799,
      "IHL": 2800,
      "Jeff": 2801,
      "Khan": 2802,
      "Lou": 2803,
      "Los": 2804,
      "Later": 2805,
      "Lombard": 2806,
      "Mon": 2807,
      "Mil": 2808,
      "Mid": 2809,
      "Mand": 2810,
      "Mall": 2811,
      "Music": 2812,
      "Oct": 2813,
      "Pt": 2814,
      "Pro": 2815,
      "Port": 2816,
      "Pict": 2817,
      "Sy": 2818,
      "Serv": 2819,
      "Summ": 2820,
      "Squad": 2821,
      "Troph": 2822,
      "Tatt": 2823,
      "Van": 2824,
      "bi": 2825,
      "bir": 2826,
      "bodies": 2827,
      "bott": 2828,
      "body": 2829,
      "che": 2830,
      "dou": 2831,
      "died": 2832,
      "east": 2833,
      "edu": 2834,
      "edition": 2835,
      "fal": 2836,
      "fair": 2837,
      "fund": 2838,
      "federal": 2839,
      "gro": 2840,
      "grew": 2841,
      "grant": 2842,
      "hier": 2843,
      "led": 2844,
      "lower": 2845,
      "latter": 2846,
      "mumm": 2847,
      "night": 2848,
      "pist": 2849,
      "pant": 2850,
      "pair": 2851,
      "sis": 2852,
      "side": 2853,
      "sites": 2854,
      "tor": 2855,
      "tons": 2856,
      "turned": 2857,
      "taking": 2858,
      "tax": 2859,
      "und": 2860,
      "voc": 2861,
      "very": 2862,
      "will": 2863,
      "wee": 2864,
      "wind": 2865,
      "ways": 2866,
      "##ris": 2867,
      "##ev": 2868,
      "##eased": 2869,
      "##yc": 2870,
      "##wal": 2871,
      "##wick": 2872,
      "##wood": 2873,
      "##work": 2874,
      "##hi": 2875,
      "##na": 2876,
      "##loy": 2877,
      "##cious": 2878,
      "##cret": 2879,
      "##ges": 2880,
      "##gel": 2881,
      "##for": 2882,
      "##fort": 2883,
      "##pre": 2884,
      "##min": 2885,
      "##kh": 2886,
      "##erry": 2887,
      "##edy": 2888,
      "##onse": 2889,
      "##ests": 2890,
      "##ators": 2891,
      "##arc": 2892,
      "##iter": 2893,
      "##any": 2894,
      "inform": 2895,
      "##isions": 2896,
      "toget": 2897,
      "##icide": 2898,
      "##reet": 2899,
      "##render": 2900,
      "thus": 2901,
      "thrill": 2902,
      "##eck": 2903,
      "##stand": 2904,
      "##ette": 2905,
      "##lywood": 2906,
      "##otes": 2907,
      "##otion": 2908,
      "##lement": 2909,
      "##ading": 2910,
      "##ollywood": 2911,
      "##uries": 2912,
      "asse": 2913,
      "##tery": 2914,
      "withd": 2915,
      "##ides": 2916,
      "##idents": 2917,
      "station": 2918,
      "style": 2919,
      "dead": 2920,
      "##iment": 2921,
      "##umed": 2922,
      "conv": 2923,
      "what": 2924,
      "##utes": 2925,
      "##verage": 2926,
      "##ceed": 2927,
      "##uner": 2928,
      "##used": 2929,
      "##ifying": 2930,
      "comes": 2931,
      "##ipp": 2932,
      "places": 2933,
      "planned": 2934,
      "areas": 2935,
      "##oph": 2936,
      "##earch": 2937,
      "##agement": 2938,
      "should": 2939,
      "shown": 2940,
      "see": 2941,
      "Intern": 2942,
      "##ability": 2943,
      "worst": 2944,
      "arr": 2945,
      "enter": 2946,
      "enough": 2947,
      "unit": 2948,
      "committee": 2949,
      "league": 2950,
      "##ization": 2951,
      "##ervation": 2952,
      "abs": 2953,
      "able": 2954,
      "composed": 2955,
      "sched": 2956,
      "scope": 2957,
      "regional": 2958,
      "diver": 2959,
      "Unl": 2960,
      "prepar": 2961,
      "##reek": 2962,
      "agre": 2963,
      "added": 2964,
      "evidence": 2965,
      "coast": 2966,
      "disapp": 2967,
      "fourth": 2968,
      "Another": 2969,
      "objects": 2970,
      "meas": 2971,
      "Nebr": 2972,
      "aerial": 2973,
      "associ": 2974,
      "association": 2975,
      "center": 2976,
      "century": 2977,
      "1997": 2978,
      "traffic": 2979,
      "deploy": 2980,
      "indep": 2981,
      "armed": 2982,
      "returning": 2983,
      "designated": 2984,
      "supply": 2985,
      "remainder": 2986,
      "smaller": 2987,
      "surf": 2988,
      "surrender": 2989,
      "positive": 2990,
      "engines": 2991,
      "Allied": 2992,
      "minutes": 2993,
      "Major": 2994,
      "invol": 2995,
      "production": 2996,
      "background": 2997,
      "writing": 2998,
      "1986": 2999,
      "1988": 3000,
      "##orns": 3001,
      "helped": 3002,
      "Warne": 3003,
      "critical": 3004,
      "winning": 3005,
      "##pedo": 3006,
      "contrast": 3007,
      "Def": 3008,
      "poor": 3009,
      "issues": 3010,
      "response": 3011,
      "Adri": 3012,
      "Suicide": 3013,
      "strugg": 3014,
      "increased": 3015,
      "Island": 3016,
      "promin": 3017,
      "concern": 3018,
      "ident": 3019,
      "realm": 3020,
      "opened": 3021,
      "something": 3022,
      "##rics": 3023,
      "commander": 3024,
      "parts": 3025,
      "scholars": 3026,
      "anime": 3027,
      "periods": 3028,
      "government": 3029,
      "funer": 3030,
      "##III": 3031,
      "study": 3032,
      "studio": 3033,
      "levels": 3034,
      "needed": 3035,
      "morning": 3036,
      "##ription": 3037,
      "features": 3038,
      "instrument": 3039,
      "liter": 3040,
      "paint": 3041,
      "title": 3042,
      "injury": 3043,
      "becomes": 3044,
      "becoming": 3045,
      "laun": 3046,
      "initially": 3047,
      "changes": 3048,
      "##aught": 3049,
      "Because": 3050,
      "casem": 3051,
      "epit": 3052,
      "emerged": 3053,
      "schools": 3054,
      "December": 3055,
      "History": 3056,
      "Lanka": 3057,
      "##ynastic": 3058,
      "##hawken": 3059,
      "Governor": 3060,
      "microlights": 3061,
      "dreadnought": 3062,
      "##sequently": 3063,
      "separate": 3064,
      "percussion": 3065,
      "envir": 3066,
      "eventually": 3067,
      "transferred": 3068,
      "Pola": 3069,
      "counter": 3070,
      "necessary": 3071,
      "piec": 3072,
      "sacred": 3073,
      "interview": 3074,
      "assigned": 3075,
      "Georgia": 3076,
      "Afric": 3077,
      "Gods": 3078,
      "Weehawken": 3079,
      "briefly": 3080,
      "essential": 3081,
      "front": 3082,
      "lyrics": 3083,
      "total": 3084,
      "flintlock": 3085,
      "##ibrary": 3086,
      "Australia": 3087,
      "demonstr": 3088,
      "collaboration": 3089,
      "Following": 3090,
      "Hanneman": 3091,
      "Louis": 3092,
      "Mandatory": 3093,
      "Mallory": 3094,
      "October": 3095,
      "Trophy": 3096,
      "Tattnall": 3097,
      "birth": 3098,
      "educ": 3099,
      "sisters": 3100,
      "torpedo": 3101,
      "vocals": 3102,
      "together": 3103,
      "thriller": 3104,
      "International": 3105,
      "Nebraska": 3106,
      "29": 3107,
      "35": 3108,
      "300": 3109,
      "75": 3110,
      "800": 3111,
      "Ag": 3112,
      "Ak": 3113,
      "Bah": 3114,
      "Bridge": 3115,
      "Direct": 3116,
      "East": 3117,
      "Hall": 3118,
      "Ju": 3119,
      "Min": 3120,
      "Nub": 3121,
      "Other": 3122,
      "Pl": 3123,
      "Pen": 3124,
      "Peter": 3125,
      "Rap": 3126,
      "Rub": 3127,
      "Sm": 3128,
      "Sur": 3129,
      "Sak": 3130,
      "Sab": 3131,
      "Sound": 3132,
      "Tar": 3133,
      "Tod": 3134,
      "Temp": 3135,
      "Will": 3136,
      "Web": 3137,
      "Wind": 3138,
      "Women": 3139,
      "XIII": 3140,
      "Year": 3141,
      "average": 3142,
      "born": 3143,
      "burned": 3144,
      "cit": 3145,
      "cart": 3146,
      "cause": 3147,
      "curr": 3148,
      "done": 3149,
      "ey": 3150,
      "eas": 3151,
      "eld": 3152,
      "eight": 3153,
      "fight": 3154,
      "gar": 3155,
      "girl": 3156,
      "hang": 3157,
      "icon": 3158,
      "kee": 3159,
      "kinder": 3160,
      "lost": 3161,
      "love": 3162,
      "listing": 3163,
      "lighter": 3164,
      "mach": 3165,
      "male": 3166,
      "mixed": 3167,
      "match": 3168,
      "nṯ": 3169,
      "non": 3170,
      "nine": 3171,
      "past": 3172,
      "park": 3173,
      "phen": 3174,
      "rit": 3175,
      "rail": 3176,
      "rather": 3177,
      "rule": 3178,
      "sw": 3179,
      "sl": 3180,
      "san": 3181,
      "sou": 3182,
      "tone": 3183,
      "upper": 3184,
      "val": 3185,
      "vert": 3186,
      "wide": 3187,
      "##eh": 3188,
      "##ait": 3189,
      "##aan": 3190,
      "##tent": 3191,
      "##tim": 3192,
      "##tained": 3193,
      "##oly": 3194,
      "##ooth": 3195,
      "##yal": 3196,
      "##ses": 3197,
      "##ney": 3198,
      "##ler": 3199,
      "##lation": 3200,
      "##lish": 3201,
      "##lined": 3202,
      "##ltim": 3203,
      "##cock": 3204,
      "##ches": 3205,
      "##gart": 3206,
      "##uals": 3207,
      "##bs": 3208,
      "##bre": 3209,
      "##pire": 3210,
      "##mir": 3211,
      "##most": 3212,
      "##mble": 3213,
      "##mund": 3214,
      "##AA": 3215,
      "##joy": 3216,
      "##onment": 3217,
      "##orb": 3218,
      "##ndial": 3219,
      "##atively": 3220,
      "##eness": 3221,
      "##aries": 3222,
      "##arily": 3223,
      "##ita": 3224,
      "##itical": 3225,
      "##itting": 3226,
      "inh": 3227,
      "##alk": 3228,
      "##ingu": 3229,
      "##ising": 3230,
      "##rot": 3231,
      "##oms": 3232,
      "##iring": 3233,
      "##stron": 3234,
      "##oto": 3235,
      "##adu": 3236,
      "##aying": 3237,
      "read": 3238,
      "beings": 3239,
      "states": 3240,
      "steam": 3241,
      "##imin": 3242,
      "almost": 3243,
      "##rap": 3244,
      "##raver": 3245,
      "condition": 3246,
      "white": 3247,
      "##cend": 3248,
      "##ession": 3249,
      "##rips": 3250,
      "##ander": 3251,
      "##cture": 3252,
      "##alled": 3253,
      "shr": 3254,
      "shoot": 3255,
      "airship": 3256,
      "cho": 3257,
      "chap": 3258,
      "champions": 3259,
      "progress": 3260,
      "##ested": 3261,
      "##ections": 3262,
      "spread": 3263,
      "##osts": 3264,
      "noting": 3265,
      "##ape": 3266,
      "true": 3267,
      "heal": 3268,
      "contact": 3269,
      "related": 3270,
      "##ously": 3271,
      "##illa": 3272,
      "whether": 3273,
      "##oint": 3274,
      "management": 3275,
      "least": 3276,
      "##ueen": 3277,
      "themes": 3278,
      "pries": 3279,
      "press": 3280,
      "image": 3281,
      "formal": 3282,
      "formation": 3283,
      "active": 3284,
      "actions": 3285,
      "##ells": 3286,
      "##endar": 3287,
      "##ending": 3288,
      "##teneg": 3289,
      "regions": 3290,
      "teams": 3291,
      "##ounced": 3292,
      "Univers": 3293,
      "Universe": 3294,
      "uses": 3295,
      "remuner": 3296,
      "ado": 3297,
      "working": 3298,
      "consisting": 3299,
      "Angel": 3300,
      "##resses": 3301,
      "finish": 3302,
      "Atum": 3303,
      "assumed": 3304,
      "centuries": 3305,
      "saw": 3306,
      "soon": 3307,
      "maxim": 3308,
      "represents": 3309,
      "representative": 3310,
      "smooth": 3311,
      "1920": 3312,
      "1929": 3313,
      "1925": 3314,
      "1920s": 3315,
      "ending": 3316,
      "1915": 3317,
      "1911": 3318,
      "designs": 3319,
      "instance": 3320,
      "persp": 3321,
      "therefore": 3322,
      "1863": 3323,
      "money": 3324,
      "whereas": 3325,
      "knowledge": 3326,
      "expanded": 3327,
      "Sea": 3328,
      "decomm": 3329,
      "##omena": 3330,
      "reveal": 3331,
      "broken": 3332,
      "distinct": 3333,
      "distingu": 3334,
      "writings": 3335,
      "##ception": 3336,
      "1985": 3337,
      "traded": 3338,
      "##manent": 3339,
      "personified": 3340,
      "phys": 3341,
      "##pedition": 3342,
      "subsequently": 3343,
      "Dep": 3344,
      "Deities": 3345,
      "does": 3346,
      "regulated": 3347,
      "regulatory": 3348,
      "standard": 3349,
      "##ribute": 3350,
      "promot": 3351,
      "tracks": 3352,
      "announced": 3353,
      "##ymns": 3354,
      "Scott": 3355,
      "creating": 3356,
      "skin": 3357,
      "skills": 3358,
      "animal": 3359,
      "groups": 3360,
      "vari": 3361,
      "dealership": 3362,
      "covered": 3363,
      "authority": 3364,
      "box": 3365,
      "procured": 3366,
      "Canad": 3367,
      "function": 3368,
      "director": 3369,
      "Edmund": 3370,
      "denomination": 3371,
      "effort": 3372,
      "England": 3373,
      "English": 3374,
      "Many": 3375,
      "basic": 3376,
      "##rophic": 3377,
      "armored": 3378,
      "Richards": 3379,
      "diam": 3380,
      "suffer": 3381,
      "suffered": 3382,
      "relationship": 3383,
      "relationships": 3384,
      "predecess": 3385,
      "Charac": 3386,
      "1849": 3387,
      "interaction": 3388,
      "indicated": 3389,
      "restrictions": 3390,
      "Aerodrom": 3391,
      "telev": 3392,
      "closely": 3393,
      "purchase": 3394,
      "Expedition": 3395,
      "farm": 3396,
      "middle": 3397,
      "version": 3398,
      "extended": 3399,
      "repaired": 3400,
      "practices": 3401,
      "syncret": 3402,
      "accepted": 3403,
      "Japanese": 3404,
      "Division": 3405,
      "Memorial": 3406,
      "books": 3407,
      "course": 3408,
      "political": 3409,
      "manifestations": 3410,
      "participated": 3411,
      "economic": 3412,
      "Duat": 3413,
      "credited": 3414,
      "friends": 3415,
      "raised": 3416,
      "construction": 3417,
      "legis": 3418,
      "floor": 3419,
      "equipment": 3420,
      "Brook": 3421,
      "awarded": 3422,
      "cults": 3423,
      "cosmos": 3424,
      "fifth": 3425,
      "failed": 3426,
      "wanted": 3427,
      "##ominant": 3428,
      "applied": 3429,
      "Early": 3430,
      "Hunwick": 3431,
      "Hartford": 3432,
      "Lombardo": 3433,
      "Monteneg": 3434,
      "bottom": 3435,
      "double": 3436,
      "piston": 3437,
      "deadline": 3438,
      "independent": 3439,
      "launched": 3440,
      "environment": 3441,
      "education": 3442,
      "Bridgeport": 3443,
      "July": 3444,
      "Rubin": 3445,
      "Webb": 3446,
      "elder": 3447,
      "kindergart": 3448,
      "nṯr": 3449,
      "phenomena": 3450,
      "##stronom": 3451,
      "University": 3452,
      "maximum": 3453,
      "kindergarten": 3454,
      "54": 3455,
      "69": 3456,
      "77": 3457,
      "80": 3458,
      "92": 3459,
      "96": 3460,
      "Az": 3461,
      "Award": 3462,
      "Bay": 3463,
      "Bost": 3464,
      "Bill": 3465,
      "Between": 3466,
      "Beg": 3467,
      "Bollywood": 3468,
      "Cam": 3469,
      "Cess": 3470,
      "City": 3471,
      "Cong": 3472,
      "Coy": 3473,
      "Curt": 3474,
      "Fam": 3475,
      "Fort": 3476,
      "Gard": 3477,
      "Greek": 3478,
      "Hind": 3479,
      "Jac": 3480,
      "Kick": 3481,
      "Kurt": 3482,
      "Lt": 3483,
      "Me": 3484,
      "Mer": 3485,
      "Mor": 3486,
      "Mal": 3487,
      "No": 3488,
      "Near": 3489,
      "Nile": 3490,
      "Nah": 3491,
      "Of": 3492,
      "Offic": 3493,
      "Pre": 3494,
      "Pri": 3495,
      "Park": 3496,
      "Publ": 3497,
      "Rh": 3498,
      "Raven": 3499,
      "Rector": 3500,
      "Rober": 3501,
      "Sam": 3502,
      "Tur": 3503,
      "Vision": 3504,
      "Wis": 3505,
      "Yet": 3506,
      "aut": 3507,
      "br": 3508,
      "bow": 3509,
      "bass": 3510,
      "bought": 3511,
      "billion": 3512,
      "bridge": 3513,
      "better": 3514,
      "cere": 3515,
      "cate": 3516,
      "cards": 3517,
      "ded": 3518,
      "dies": 3519,
      "dut": 3520,
      "dark": 3521,
      "dire": 3522,
      "dail": 3523,
      "dwell": 3524,
      "data": 3525,
      "esc": 3526,
      "fr": 3527,
      "fu": 3528,
      "fig": 3529,
      "ful": 3530,
      "fant": 3531,
      "fest": 3532,
      "fert": 3533,
      "hockey": 3534,
      "ice": 3535,
      "ill": 3536,
      "jets": 3537,
      "jud": 3538,
      "ke": 3539,
      "key": 3540,
      "lot": 3541,
      "lear": 3542,
      "lab": 3543,
      "look": 3544,
      "load": 3545,
      "mot": 3546,
      "mut": 3547,
      "mess": 3548,
      "mph": 3549,
      "moun": 3550,
      "mouth": 3551,
      "member": 3552,
      "mission": 3553,
      "maps": 3554,
      "makes": 3555,
      "nort": 3556,
      "native": 3557,
      "pow": 3558,
      "pack": 3559,
      "page": 3560,
      "ran": 3561,
      "right": 3562,
      "soc": 3563,
      "sense": 3564,
      "ton": 3565,
      "ten": 3566,
      "tide": 3567,
      "tail": 3568,
      "taken": 3569,
      "ultim": 3570,
      "vi": 3571,
      "west": 3572,
      "wood": 3573,
      "woman": 3574,
      "you": 3575,
      "##rated": 3576,
      "##rance": 3577,
      "##rays": 3578,
      "##ex": 3579,
      "##ders": 3580,
      "##af": 3581,
      "##ta": 3582,
      "##ti": 3583,
      "##try": 3584,
      "##oen": 3585,
      "##yth": 3586,
      "##ych": 3587,
      "##sive": 3588,
      "##ham": 3589,
      "##nel": 3590,
      "##nowledge": 3591,
      "##niews": 3592,
      "##las": 3593,
      "##lated": 3594,
      "##lake": 3595,
      "##ius": 3596,
      "##iated": 3597,
      "##ique": 3598,
      "##che": 3599,
      "##cope": 3600,
      "##go": 3601,
      "##ger": 3602,
      "##gon": 3603,
      "##ging": 3604,
      "##uki": 3605,
      "##bes": 3606,
      "##ban": 3607,
      "##bing": 3608,
      "##bably": 3609,
      "##vements": 3610,
      "##fire": 3611,
      "##full": 3612,
      "##pts": 3613,
      "##pose": 3614,
      "##ma": 3615,
      "##ker": 3616,
      "##jō": 3617,
      "##jected": 3618,
      "##PL": 3619,
      "##heon": 3620,
      "##heless": 3621,
      "##erous": 3622,
      "##erious": 3623,
      "##inery": 3624,
      "##infor": 3625,
      "##ones": 3626,
      "##onom": 3627,
      "##orter": 3628,
      "##aten": 3629,
      "##atives": 3630,
      "##ening": 3631,
      "##enge": 3632,
      "##ari": 3633,
      "##arrow": 3634,
      "##ario": 3635,
      "inters": 3636,
      "##alers": 3637,
      "##ality": 3638,
      "##ington": 3639,
      "##ases": 3640,
      "##isc": 3641,
      "##ishes": 3642,
      "##ica": 3643,
      "##ics": 3644,
      "##road": 3645,
      "##enth": 3646,
      "##ech": 3647,
      "##ama": 3648,
      "##amity": 3649,
      "##ete": 3650,
      "##ivals": 3651,
      "##othe": 3652,
      "##otential": 3653,
      "##ades": 3654,
      "##olis": 3655,
      "##olina": 3656,
      "##olution": 3657,
      "##urs": 3658,
      "asked": 3659,
      "reb": 3660,
      "rend": 3661,
      "reinfor": 3662,
      "##uled": 3663,
      "##ulate": 3664,
      "sting": 3665,
      "stop": 3666,
      "street": 3667,
      "##imoto": 3668,
      "##hern": 3669,
      "##vert": 3670,
      "anal": 3671,
      "##uns": 3672,
      "##emed": 3673,
      "##rian": 3674,
      "##istant": 3675,
      "##cht": 3676,
      "##chcock": 3677,
      "##iform": 3678,
      "##avior": 3679,
      "come": 3680,
      "##ains": 3681,
      "orders": 3682,
      "plans": 3683,
      "##oplan": 3684,
      "##ago": 3685,
      "shut": 3686,
      "airworthiness": 3687,
      "church": 3688,
      "propos": 3689,
      "sev": 3690,
      "sex": 3691,
      "Inter": 3692,
      "spect": 3693,
      "spores": 3694,
      "excl": 3695,
      "exhib": 3696,
      "##aph": 3697,
      "heav": 3698,
      "Church": 3699,
      "Egyptolog": 3700,
      "##mented": 3701,
      "recently": 3702,
      "neither": 3703,
      "permanent": 3704,
      "enl": 3705,
      "enem": 3706,
      "unable": 3707,
      "universe": 3708,
      "unique": 3709,
      "relating": 3710,
      "Ste": 3711,
      "##ousand": 3712,
      "commissioned": 3713,
      "tend": 3714,
      "twin": 3715,
      "##oughts": 3716,
      "whole": 3717,
      "whose": 3718,
      "intended": 3719,
      "##ointed": 3720,
      "GASA": 3721,
      "leaving": 3722,
      "##erve": 3723,
      "pray": 3724,
      "princ": 3725,
      "itself": 3726,
      "compon": 3727,
      "company": 3728,
      "##oked": 3729,
      "carry": 3730,
      "cargo": 3731,
      "##ludes": 3732,
      "2015": 3733,
      "regular": 3734,
      "regarded": 3735,
      "charge": 3736,
      "agency": 3737,
      "remov": 3738,
      "remark": 3739,
      "2005": 3740,
      "coal": 3741,
      "coach": 3742,
      "disorder": 3743,
      "consult": 3744,
      "news": 3745,
      "##etwork": 3746,
      "finished": 3747,
      "meant": 3748,
      "royal": 3749,
      "understand": 3750,
      "central": 3751,
      "Blues": 3752,
      "account": 3753,
      "accomp": 3754,
      "1991": 3755,
      "representing": 3756,
      "Rep": 3757,
      "recording": 3758,
      "ended": 3759,
      "Austria": 3760,
      "##spec": 3761,
      "mainly": 3762,
      "moves": 3763,
      "158": 3764,
      "emb": 3765,
      "serve": 3766,
      "know": 3767,
      "knots": 3768,
      "Sega": 3769,
      "declined": 3770,
      "classes": 3771,
      "appearances": 3772,
      "Along": 3773,
      "followed": 3774,
      "Arkadelphia": 3775,
      "Britain": 3776,
      "brown": 3777,
      "broke": 3778,
      "producing": 3779,
      "seconds": 3780,
      "Carolina": 3781,
      "Whalers": 3782,
      "metal": 3783,
      "powered": 3784,
      "importance": 3785,
      "alongside": 3786,
      "##eget": 3787,
      "respectively": 3788,
      "Raj": 3789,
      "require": 3790,
      "Addition": 3791,
      "Admir": 3792,
      "Entry": 3793,
      "Such": 3794,
      "highly": 3795,
      "model": 3796,
      "museum": 3797,
      "demand": 3798,
      "demons": 3799,
      "connection": 3800,
      "increase": 3801,
      "Gobre": 3802,
      "provide": 3803,
      "Italy": 3804,
      "previously": 3805,
      "Indian": 3806,
      "elimin": 3807,
      "elev": 3808,
      "equated": 3809,
      "##ymes": 3810,
      "commonly": 3811,
      "consider": 3812,
      "critics": 3813,
      "##ridges": 3814,
      "animals": 3815,
      "establish": 3816,
      "Greena": 3817,
      "protect": 3818,
      "largely": 3819,
      "Commercial": 3820,
      "rounds": 3821,
      "statues": 3822,
      "statistics": 3823,
      "reviews": 3824,
      "Senjō": 3825,
      "hands": 3826,
      "missed": 3827,
      "##ranto": 3828,
      "##obatic": 3829,
      "postc": 3830,
      "##azine": 3831,
      "##espread": 3832,
      "additional": 3833,
      "Europe": 3834,
      "Phoen": 3835,
      "passed": 3836,
      "pounds": 3837,
      "quick": 3838,
      "difficulty": 3839,
      "##onto": 3840,
      "approach": 3841,
      "estimates": 3842,
      "Gallia": 3843,
      "injured": 3844,
      "weapon": 3845,
      "suggested": 3846,
      "Period": 3847,
      "illustrated": 3848,
      "Desc": 3849,
      "School": 3850,
      "cases": 3851,
      "female": 3852,
      "##boat": 3853,
      "referred": 3854,
      "closure": 3855,
      "replaced": 3856,
      "purchased": 3857,
      "polyt": 3858,
      "Coach": 3859,
      "Flight": 3860,
      "joined": 3861,
      "marked": 3862,
      "presence": 3863,
      "selected": 3864,
      "widespread": 3865,
      "##hael": 3866,
      "buildings": 3867,
      "improvements": 3868,
      "destroyed": 3869,
      "licensed": 3870,
      "licensing": 3871,
      "Otranto": 3872,
      "draw": 3873,
      "flown": 3874,
      "linked": 3875,
      "successfully": 3876,
      "cruisers": 3877,
      "pharaohs": 3878,
      "genus": 3879,
      "highest": 3880,
      "situation": 3881,
      "victory": 3882,
      "shift": 3883,
      "##queline": 3884,
      "permitted": 3885,
      "1889": 3886,
      "individual": 3887,
      "helicopters": 3888,
      "responsibility": 3889,
      "occurred": 3890,
      "favorite": 3891,
      "Center": 3892,
      "Housefull": 3893,
      "Pitlake": 3894,
      "Royal": 3895,
      "Toronto": 3896,
      "musk": 3897,
      "solar": 3898,
      "concepts": 3899,
      "problems": 3900,
      "existence": 3901,
      "incorporated": 3902,
      "mysterious": 3903,
      "maintaining": 3904,
      "defenseman": 3905,
      "Philadelphia": 3906,
      "reduced": 3907,
      "Records": 3908,
      "Empire": 3909,
      "German": 3910,
      "Hitchcock": 3911,
      "Highway": 3912,
      "Squadron": 3913,
      "pantheon": 3914,
      "weeks": 3915,
      "assemb": 3916,
      "stationed": 3917,
      "##ceeded": 3918,
      "scheduled": 3919,
      "agreed": 3920,
      "measure": 3921,
      "involving": 3922,
      "prominent": 3923,
      "funerary": 3924,
      "paintings": 3925,
      "casemate": 3926,
      "piece": 3927,
      "Bahrain": 3928,
      "Director": 3929,
      "Raphael": 3930,
      "Sakimoto": 3931,
      "Sabres": 3932,
      "Winds": 3933,
      "citiz": 3934,
      "cartridges": 3935,
      "sanct": 3936,
      "priests": 3937,
      "adopted": 3938,
      "Angeles": 3939,
      "decommissioned": 3940,
      "revealed": 3941,
      "distinguished": 3942,
      "physical": 3943,
      "variety": 3944,
      "television": 3945,
      "Boston": 3946,
      "Camden": 3947,
      "Cessna": 3948,
      "Congress": 3949,
      "Coyotes": 3950,
      "Curtis": 3951,
      "Hindman": 3952,
      "Jacqueline": 3953,
      "Nahant": 3954,
      "Public": 3955,
      "Rhymes": 3956,
      "Wisniews": 3957,
      "ceremon": 3958,
      "categor": 3959,
      "dedic": 3960,
      "direction": 3961,
      "daily": 3962,
      "fully": 3963,
      "kept": 3964,
      "pageant": 3965,
      "social": 3966,
      "exclus": 3967,
      "GASAR": 3968,
      "Admiral": 3969,
      "Gobrecht": 3970,
      "eliminated": 3971,
      "Greenaway": 3972,
      "Phoenix": 3973,
      "Wisniewski": 3974,
      "1st": 3975,
      "36": 3976,
      "33": 3977,
      "40": 3978,
      "49": 3979,
      "47": 3980,
      "48": 3981,
      "422": 3982,
      "59": 3983,
      "60": 3984,
      "64": 3985,
      "94": 3986,
      "Author": 3987,
      "Br": 3988,
      "BU": 3989,
      "Back": 3990,
      "Bres": 3991,
      "Cle": 3992,
      "Crit": 3993,
      "Coun": 3994,
      "Cert": 3995,
      "Comp": 3996,
      "Dou": 3997,
      "Dav": 3998,
      "Due": 3999,
      "Desp": 4000,
      "Darl": 4001,
      "Darc": 4002,
      "El": 4003,
      "Fe": 4004,
      "Fu": 4005,
      "Fin": 4006,
      "Fruit": 4007,
      "Federal": 4008,
      "Gh": 4009,
      "Gold": 4010,
      "Games": 4011,
      "Ground": 4012,
      "Girl": 4013,
      "Hum": 4014,
      "Horn": 4015,
      "Hymns": 4016,
      "IC": 4017,
      "JA": 4018,
      "Jam": 4019,
      "Kh": 4020,
      "Khen": 4021,
      "Kerry": 4022,
      "Knowledge": 4023,
      "Last": 4024,
      "Mic": 4025,
      "Met": 4026,
      "Mich": 4027,
      "Mumb": 4028,
      "ND": 4029,
      "Non": 4030,
      "Natural": 4031,
      "Pers": 4032,
      "Pop": 4033,
      "Part": 4034,
      "Post": 4035,
      "Pred": 4036,
      "Pius": 4037,
      "Potential": 4038,
      "Queen": 4039,
      "Res": 4040,
      "Rif": 4041,
      "Room": 4042,
      "Radet": 4043,
      "Rush": 4044,
      "Sal": 4045,
      "Since": 4046,
      "Silver": 4047,
      "Tamp": 4048,
      "Times": 4049,
      "Teget": 4050,
      "Under": 4051,
      "VI": 4052,
      "Wad": 4053,
      "West": 4054,
      "Wake": 4055,
      "Wales": 4056,
      "Western": 4057,
      "You": 4058,
      "aid": 4059,
      "aud": 4060,
      "astronom": 4061,
      "bar": 4062,
      "bad": 4063,
      "ce": 4064,
      "cities": 4065,
      "cost": 4066,
      "cross": 4067,
      "caught": 4068,
      "dr": 4069,
      "du": 4070,
      "dro": 4071,
      "drop": 4072,
      "era": 4073,
      "eag": 4074,
      "eigh": 4075,
      "espec": 4076,
      "fut": 4077,
      "fate": 4078,
      "fear": 4079,
      "flu": 4080,
      "fles": 4081,
      "fru": 4082,
      "fold": 4083,
      "field": 4084,
      "flex": 4085,
      "font": 4086,
      "get": 4087,
      "gross": 4088,
      "grand": 4089,
      "ho": 4090,
      "hon": 4091,
      "hit": 4092,
      "hop": 4093,
      "hous": 4094,
      "hull": 4095,
      "habit": 4096,
      "jour": 4097,
      "kill": 4098,
      "lion": 4099,
      "lang": 4100,
      "lived": 4101,
      "law": 4102,
      "leng": 4103,
      "library": 4104,
      "mec": 4105,
      "map": 4106,
      "mass": 4107,
      "mob": 4108,
      "munition": 4109,
      "nor": 4110,
      "none": 4111,
      "narrow": 4112,
      "network": 4113,
      "om": 4114,
      "pe": 4115,
      "pan": 4116,
      "ple": 4117,
      "pap": 4118,
      "paper": 4119,
      "rom": 4120,
      "roll": 4121,
      "rays": 4122,
      "river": 4123,
      "rene": 4124,
      "son": 4125,
      "sort": 4126,
      "sect": 4127,
      "sung": 4128,
      "stern": 4129,
      "sales": 4130,
      "satis": 4131,
      "soph": 4132,
      "tar": 4133,
      "task": 4134,
      "turre": 4135,
      "vul": 4136,
      "via": 4137,
      "vener": 4138,
      "view": 4139,
      "vint": 4140,
      "veter": 4141,
      "went": 4142,
      "wear": 4143,
      "wound": 4144,
      "your": 4145,
      "µm": 4146,
      "戦場": 4147,
      "##ries": 4148,
      "##rus": 4149,
      "##ract": 4150,
      "##ew": 4151,
      "##ees": 4152,
      "##eated": 4153,
      "##da": 4154,
      "##dron": 4155,
      "##aul": 4156,
      "##awn": 4157,
      "##to": 4158,
      "##ya": 4159,
      "##sh": 4160,
      "##set": 4161,
      "##sbur": 4162,
      "##war": 4163,
      "##wing": 4164,
      "##wide": 4165,
      "##wise": 4166,
      "##ht": 4167,
      "##hot": 4168,
      "##haps": 4169,
      "##ned": 4170,
      "##nead": 4171,
      "##niel": 4172,
      "##lin": 4173,
      "##lau": 4174,
      "##iam": 4175,
      "##ium": 4176,
      "##ca": 4177,
      "##can": 4178,
      "##cou": 4179,
      "##gr": 4180,
      "##gic": 4181,
      "##gren": 4182,
      "##glas": 4183,
      "##guns": 4184,
      "##uable": 4185,
      "##by": 4186,
      "##bor": 4187,
      "##body": 4188,
      "##val": 4189,
      "##fit": 4190,
      "##ple": 4191,
      "##pond": 4192,
      "##mar": 4193,
      "##ming": 4194,
      "##za": 4195,
      "##zky": 4196,
      "##ka": 4197,
      "##kn": 4198,
      "##kin": 4199,
      "##key": 4200,
      "##50": 4201,
      "##AO": 4202,
      "##のヴ": 4203,
      "##ァル": 4204,
      "##キュ": 4205,
      "##リア": 4206,
      "##jid": 4207,
      "##just": 4208,
      "##hets": 4209,
      "theories": 4210,
      "##ino": 4211,
      "##eding": 4212,
      "##ored": 4213,
      "##orph": 4214,
      "##orring": 4215,
      "##ato": 4216,
      "##atan": 4217,
      "##atform": 4218,
      "##enes": 4219,
      "##enant": 4220,
      "##arth": 4221,
      "##arters": 4222,
      "##itia": 4223,
      "##itish": 4224,
      "##ants": 4225,
      "ins": 4226,
      "##alent": 4227,
      "##alato": 4228,
      "##asury": 4229,
      "##isi": 4230,
      "##iser": 4231,
      "##isation": 4232,
      "##isod": 4233,
      "##isher": 4234,
      "town": 4235,
      "##icate": 4236,
      "##icago": 4237,
      "##ream": 4238,
      "##ellow": 4239,
      "##iled": 4240,
      "##ilies": 4241,
      "##ilers": 4242,
      "##ilized": 4243,
      "thin": 4244,
      "think": 4245,
      "##omes": 4246,
      "##oming": 4247,
      "##acy": 4248,
      "##enty": 4249,
      "##ented": 4250,
      "##ecut": 4251,
      "##stead": 4252,
      "##strips": 4253,
      "wasn": 4254,
      "Their": 4255,
      "Thebes": 4256,
      "##etition": 4257,
      "##etta": 4258,
      "forced": 4259,
      "forward": 4260,
      "##lyph": 4261,
      "##otive": 4262,
      "##otheistic": 4263,
      "##otilla": 4264,
      "##aded": 4265,
      "##ols": 4266,
      "##aya": 4267,
      "##igation": 4268,
      "##ighed": 4269,
      "asc": 4270,
      "ask": 4271,
      "rear": 4272,
      "reform": 4273,
      "beam": 4274,
      "##ider": 4275,
      "##idian": 4276,
      "##ulace": 4277,
      "stri": 4278,
      "stained": 4279,
      "stores": 4280,
      "##iments": 4281,
      "##imeter": 4282,
      "##thoff": 4283,
      "##ume": 4284,
      "##umes": 4285,
      "alle": 4286,
      "##raight": 4287,
      "##raham": 4288,
      "concept": 4289,
      "constant": 4290,
      "whitish": 4291,
      "##semble": 4292,
      "##utenant": 4293,
      "##verty": 4294,
      "anthrop": 4295,
      "##emble": 4296,
      "##ptic": 4297,
      "##chit": 4298,
      "##change": 4299,
      "##ify": 4300,
      "##iff": 4301,
      "coming": 4302,
      "comeb": 4303,
      "comedy": 4304,
      "oracles": 4305,
      "##osen": 4306,
      "platform": 4307,
      "##opolis": 4308,
      "sundial": 4309,
      "##agn": 4310,
      "##agl": 4311,
      "shore": 4312,
      "airline": 4313,
      "airstrips": 4314,
      "chall": 4315,
      "chose": 4316,
      "chosen": 4317,
      "##pped": 4318,
      "proved": 4319,
      "probably": 4320,
      "sequel": 4321,
      "##artment": 4322,
      "##aked": 4323,
      "##abric": 4324,
      "sport": 4325,
      "spru": 4326,
      "##ieutenant": 4327,
      "exten": 4328,
      "existing": 4329,
      "extent": 4330,
      "##oster": 4331,
      "##aples": 4332,
      "Chap": 4333,
      "Chief": 4334,
      "Champions": 4335,
      "Chicago": 4336,
      "##quate": 4337,
      "##respond": 4338,
      "recomm": 4339,
      "recalled": 4340,
      "perception": 4341,
      "##ustom": 4342,
      "content": 4343,
      "contribut": 4344,
      "enjoy": 4345,
      "uns": 4346,
      "unified": 4347,
      "univers": 4348,
      "uniform": 4349,
      "Stan": 4350,
      "Stud": 4351,
      "Storring": 4352,
      "Staples": 4353,
      "##perial": 4354,
      "180": 4355,
      "187": 4356,
      "183": 4357,
      "twice": 4358,
      "twenty": 4359,
      "Arniel": 4360,
      "Araya": 4361,
      "Head": 4362,
      "reported": 4363,
      "managed": 4364,
      "##ogen": 4365,
      "##oglyph": 4366,
      "##iza": 4367,
      "##izations": 4368,
      "immed": 4369,
      "##achute": 4370,
      "compared": 4371,
      "##elled": 4372,
      "##elling": 4373,
      "office": 4374,
      "offered": 4375,
      "overt": 4376,
      "appar": 4377,
      "appeal": 4378,
      "resemble": 4379,
      "score": 4380,
      "buck": 4381,
      "divided": 4382,
      "going": 4383,
      "good": 4384,
      "operate": 4385,
      "operates": 4386,
      "preced": 4387,
      "precious": 4388,
      "charco": 4389,
      "aground": 4390,
      "aggress": 4391,
      "adm": 4392,
      "Thus": 4393,
      "##ikely": 4394,
      "flat": 4395,
      "flag": 4396,
      "flood": 4397,
      "flotilla": 4398,
      "##issipp": 4399,
      "2002": 4400,
      "2001": 4401,
      "2003": 4402,
      "coaching": 4403,
      "##ibly": 4404,
      "seasons": 4405,
      "disp": 4406,
      "disru": 4407,
      "interpre": 4408,
      "speculation": 4409,
      "object": 4410,
      "##ressing": 4411,
      "room": 4412,
      "aeroplan": 4413,
      "aerobatic": 4414,
      "attribut": 4415,
      "attached": 4416,
      "attended": 4417,
      "accidents": 4418,
      "soil": 4419,
      "1992": 4420,
      "traw": 4421,
      "traits": 4422,
      "Rev": 4423,
      "records": 4424,
      "amb": 4425,
      "##ensive": 4426,
      "army": 4427,
      "armament": 4428,
      "secret": 4429,
      "##ude": 4430,
      "##anner": 4431,
      "##annel": 4432,
      "1919": 4433,
      "##ranean": 4434,
      "instru": 4435,
      "##ctioned": 4436,
      "gives": 4437,
      "gunboat": 4438,
      "maintained": 4439,
      "##indisi": 4440,
      "1865": 4441,
      "1864": 4442,
      "157": 4443,
      "151": 4444,
      "create": 4445,
      "serving": 4446,
      "##isticated": 4447,
      "smallest": 4448,
      "surp": 4449,
      "survey": 4450,
      "##ismal": 4451,
      "expected": 4452,
      "expressed": 4453,
      "IIFA": 4454,
      "decline": 4455,
      "decisions": 4456,
      "glass": 4457,
      "locations": 4458,
      "##henaten": 4459,
      "Allen": 4460,
      "minim": 4461,
      "Maj": 4462,
      "continues": 4463,
      "##porate": 4464,
      "1987": 4465,
      "trading": 4466,
      "Leo": 4467,
      "Leadet": 4468,
      "longer": 4469,
      "Whig": 4470,
      "meteor": 4471,
      "personnel": 4472,
      "historic": 4473,
      "phot": 4474,
      "winner": 4475,
      "purpose": 4476,
      "weighed": 4477,
      "##aptismal": 4478,
      "officer": 4479,
      "Spec": 4480,
      "Spalato": 4481,
      "poverty": 4482,
      "respond": 4483,
      "mythology": 4484,
      "artwork": 4485,
      "Supp": 4486,
      "highway": 4487,
      "modeling": 4488,
      "standing": 4489,
      "greatly": 4490,
      "structure": 4491,
      "demo": 4492,
      "##issioning": 4493,
      "promote": 4494,
      "##engers": 4495,
      "patch": 4496,
      "populace": 4497,
      "annot": 4498,
      "annually": 4499,
      "1942": 4500,
      "1943": 4501,
      "1948": 4502,
      "evening": 4503,
      "supported": 4504,
      "supporting": 4505,
      "traditions": 4506,
      "elite": 4507,
      "fungi": 4508,
      "resulting": 4509,
      "criticized": 4510,
      "maskrays": 4511,
      "sket": 4512,
      "##retary": 4513,
      "1937": 4514,
      "1933": 4515,
      "1930s": 4516,
      "destination": 4517,
      "protection": 4518,
      "influenced": 4519,
      "Apocal": 4520,
      "authorities": 4521,
      "authorized": 4522,
      "civilian": 4523,
      "delay": 4524,
      "deliver": 4525,
      "fellow": 4526,
      "##dney": 4527,
      "##ientific": 4528,
      "strate": 4529,
      "governed": 4530,
      "Canaan": 4531,
      "Calif": 4532,
      "Calamity": 4533,
      "functions": 4534,
      "licences": 4535,
      "shotguns": 4536,
      "depicting": 4537,
      "detail": 4538,
      "worshipped": 4539,
      "denied": 4540,
      "quest": 4541,
      "USS": 4542,
      "landing": 4543,
      "older": 4544,
      "prize": 4545,
      "qualified": 4546,
      "rifle": 4547,
      "aspect": 4548,
      "1962": 4549,
      "approxim": 4550,
      "battlefield": 4551,
      "Richard": 4552,
      "correspond": 4553,
      "corporate": 4554,
      "diagn": 4555,
      "painted": 4556,
      "titled": 4557,
      "type": 4558,
      "predominant": 4559,
      "surrounded": 4560,
      "battleship": 4561,
      "clubs": 4562,
      "devolved": 4563,
      "changed": 4564,
      "introduction": 4565,
      "##aughter": 4566,
      "idea": 4567,
      "Abraham": 4568,
      "Becht": 4569,
      "Organ": 4570,
      "Ordnance": 4571,
      "Secretary": 4572,
      "episod": 4573,
      "females": 4574,
      "slowly": 4575,
      "teleg": 4576,
      "visual": 4577,
      "##board": 4578,
      "shells": 4579,
      "earliest": 4580,
      "Regular": 4581,
      "Lankan": 4582,
      "affected": 4583,
      "versions": 4584,
      "practice": 4585,
      "possible": 4586,
      "Government": 4587,
      "processions": 4588,
      "microlight": 4589,
      "dreadnoughts": 4590,
      "symbolic": 4591,
      "Ott": 4592,
      "Similar": 4593,
      "capable": 4594,
      "capital": 4595,
      "heard": 4596,
      "penet": 4597,
      "rules": 4598,
      "squadron": 4599,
      "##amental": 4600,
      "superior": 4601,
      "distributed": 4602,
      "distribution": 4603,
      "determine": 4604,
      "Battlefield": 4605,
      "M1822": 4606,
      "economy": 4607,
      "Class": 4608,
      "Gliding": 4609,
      "Imperial": 4610,
      "Media": 4611,
      "Mediter": 4612,
      "Mississipp": 4613,
      "President": 4614,
      "Sajid": 4615,
      "Treasury": 4616,
      "causing": 4617,
      "higher": 4618,
      "situations": 4619,
      "walls": 4620,
      "threatened": 4621,
      "argued": 4622,
      "safety": 4623,
      "acquired": 4624,
      "helicopter": 4625,
      "responsible": 4626,
      "385": 4627,
      "Flying": 4628,
      "Waldron": 4629,
      "benefit": 4630,
      "clear": 4631,
      "renamed": 4632,
      "##racks": 4633,
      "##burgh": 4634,
      "claimed": 4635,
      "manufacture": 4636,
      "adapted": 4637,
      "departed": 4638,
      "reflecting": 4639,
      "communication": 4640,
      "excluded": 4641,
      "Dahau": 4642,
      "Henry": 4643,
      "Middle": 4644,
      "Ptah": 4645,
      "Pictures": 4646,
      "Sydney": 4647,
      "Service": 4648,
      "fundamental": 4649,
      "granted": 4650,
      "hieroglyph": 4651,
      "mummies": 4652,
      "window": 4653,
      "withdra": 4654,
      "arrived": 4655,
      "absorb": 4656,
      "diverse": 4657,
      "Unlike": 4658,
      "associated": 4659,
      "surface": 4660,
      "Adriatic": 4661,
      "concerns": 4662,
      "instrumentation": 4663,
      "literature": 4664,
      "epithets": 4665,
      "Africa": 4666,
      "demonstrated": 4667,
      "Again": 4668,
      "Akhenaten": 4669,
      "Nubia": 4670,
      "Todd": 4671,
      "current": 4672,
      "eyes": 4673,
      "machinery": 4674,
      "ritual": 4675,
      "railroad": 4676,
      "soul": 4677,
      "vertical": 4678,
      "conditions": 4679,
      "shootout": 4680,
      "chapel": 4681,
      "health": 4682,
      "perspective": 4683,
      "Department": 4684,
      "diameter": 4685,
      "suffering": 4686,
      "predecessors": 4687,
      "Characters": 4688,
      "Aerodrome": 4689,
      "farmland": 4690,
      "legislation": 4691,
      "Montenegro": 4692,
      "environmental": 4693,
      "Robert": 4694,
      "Turkey": 4695,
      "frame": 4696,
      "fantasy": 4697,
      "lottery": 4698,
      "label": 4699,
      "powers": 4700,
      "wooden": 4701,
      "reinforce": 4702,
      "analys": 4703,
      "Egyptologist": 4704,
      "removed": 4705,
      "accompan": 4706,
      "postcards": 4707,
      "polytheistic": 4708,
      "assembled": 4709,
      "citizens": 4710,
      "ceremonies": 4711,
      "Brindisi": 4712,
      "Background": 4713,
      "Breslau": 4714,
      "Douglas": 4715,
      "David": 4716,
      "Despite": 4717,
      "Darling": 4718,
      "Darcsen": 4719,
      "Fuj": 4720,
      "Groundsel": 4721,
      "Hornung": 4722,
      "ICAO": 4723,
      "JAR": 4724,
      "Mumbai": 4725,
      "Radetzky": 4726,
      "Tampa": 4727,
      "Tegetthoff": 4728,
      "eagle": 4729,
      "eighth": 4730,
      "especially": 4731,
      "flesh": 4732,
      "honor": 4733,
      "langu": 4734,
      "length": 4735,
      "mechan": 4736,
      "munitions": 4737,
      "sectors": 4738,
      "sophisticated": 4739,
      "turrets": 4740,
      "vintage": 4741,
      "戦場のヴ": 4742,
      "##sburg": 4743,
      "##ァルキュ": 4744,
      "##ecutive": 4745,
      "comeback": 4746,
      "spruce": 4747,
      "extensive": 4748,
      "Storrington": 4749,
      "charcoal": 4750,
      "Leadeth": 4751,
      "approximately": 4752,
      "Mediterranean": 4753,
      "Mississippi": 4754,
      "Waldrons": 4755,
      "absorbed": 4756,
      "戦場のヴァルキュ": 4757,
      "戦場のヴァルキュリア": 4758,
      "2nd": 4759,
      "32": 4760,
      "41": 4761,
      "44": 4762,
      "57": 4763,
      "56": 4764,
      "62": 4765,
      "65": 4766,
      "76": 4767,
      "700": 4768,
      "86": 4769,
      "84": 4770,
      "900": 4771,
      "Aut": 4772,
      "Alex": 4773,
      "Bel": 4774,
      "Best": 4775,
      "Balk": 4776,
      "Banner": 4777,
      "Come": 4778,
      "Clay": 4779,
      "Cons": 4780,
      "Catt": 4781,
      "Dh": 4782,
      "DL": 4783,
      "DV": 4784,
      "Den": 4785,
      "Dis": 4786,
      "Del": 4787,
      "Det": 4788,
      "Dem": 4789,
      "Dist": 4790,
      "Dave": 4791,
      "Dorn": 4792,
      "Dhaw": 4793,
      "Dasy": 4794,
      "Ey": 4795,
      "Ev": 4796,
      "EU": 4797,
      "Edition": 4798,
      "Ext": 4799,
      "Fil": 4800,
      "Fir": 4801,
      "Four": 4802,
      "Form": 4803,
      "Fren": 4804,
      "Foot": 4805,
      "Film": 4806,
      "Faul": 4807,
      "Gen": 4808,
      "Gil": 4809,
      "Grou": 4810,
      "Hon": 4811,
      "Hab": 4812,
      "Herm": 4813,
      "Hang": 4814,
      "Horth": 4815,
      "Hait": 4816,
      "Holy": 4817,
      "Ist": 4818,
      "Jes": 4819,
      "Jen": 4820,
      "Jul": 4821,
      "Jose": 4822,
      "Joint": 4823,
      "Ka": 4824,
      "Ken": 4825,
      "Kim": 4826,
      "Kum": 4827,
      "Kate": 4828,
      "Kap": 4829,
      "Lat": 4830,
      "Lar": 4831,
      "Live": 4832,
      "Like": 4833,
      "Lively": 4834,
      "Local": 4835,
      "Library": 4836,
      "LAA": 4837,
      "Lieutenant": 4838,
      "My": 4839,
      "Mat": 4840,
      "Mod": 4841,
      "Mur": 4842,
      "Mos": 4843,
      "Mark": 4844,
      "Maria": 4845,
      "Na": 4846,
      "NP": 4847,
      "Nor": 4848,
      "Not": 4849,
      "Nad": 4850,
      "Nik": 4851,
      "Note": 4852,
      "Neck": 4853,
      "Oz": 4854,
      "Our": 4855,
      "Oilers": 4856,
      "Pe": 4857,
      "PS": 4858,
      "Pac": 4859,
      "Perm": 4860,
      "Pez": 4861,
      "Player": 4862,
      "Plan": 4863,
      "Ry": 4864,
      "Race": 4865,
      "Russ": 4866,
      "Road": 4867,
      "Riel": 4868,
      "Sw": 4869,
      "Sz": 4870,
      "Sing": 4871,
      "Sil": 4872,
      "Sun": 4873,
      "Song": 4874,
      "Sports": 4875,
      "TV": 4876,
      "Tel": 4877,
      "Tom": 4878,
      "Tun": 4879,
      "Team": 4880,
      "Tuck": 4881,
      "Terry": 4882,
      "Up": 4883,
      "Ven": 4884,
      "Wy": 4885,
      "WW": 4886,
      "WY": 4887,
      "Wings": 4888,
      "Wood": 4889,
      "au": 4890,
      "ap": 4891,
      "bor": 4892,
      "bes": 4893,
      "big": 4894,
      "bull": 4895,
      "bring": 4896,
      "border": 4897,
      "baptismal": 4898,
      "cat": 4899,
      "cro": 4900,
      "cow": 4901,
      "cast": 4902,
      "case": 4903,
      "capt": 4904,
      "caps": 4905,
      "cyl": 4906,
      "cells": 4907,
      "doc": 4908,
      "dang": 4909,
      "drum": 4910,
      "deter": 4911,
      "dram": 4912,
      "fat": 4913,
      "fit": 4914,
      "fan": 4915,
      "fres": 4916,
      "fast": 4917,
      "fell": 4918,
      "face": 4919,
      "fring": 4920,
      "gre": 4921,
      "gam": 4922,
      "got": 4923,
      "gau": 4924,
      "gran": 4925,
      "gone": 4926,
      "gray": 4927,
      "gained": 4928,
      "har": 4929,
      "hers": 4930,
      "hire": 4931,
      "homes": 4932,
      "ir": 4933,
      "jet": 4934,
      "lin": 4935,
      "listed": 4936,
      "lists": 4937,
      "living": 4938,
      "letter": 4939,
      "mat": 4940,
      "mis": 4941,
      "mix": 4942,
      "matur": 4943,
      "mention": 4944,
      "net": 4945,
      "nour": 4946,
      "norm": 4947,
      "navy": 4948,
      "natural": 4949,
      "neck": 4950,
      "od": 4951,
      "our": 4952,
      "pa": 4953,
      "pine": 4954,
      "pull": 4955,
      "pace": 4956,
      "pix": 4957,
      "pier": 4958,
      "ports": 4959,
      "rh": 4960,
      "rac": 4961,
      "ram": 4962,
      "row": 4963,
      "rites": 4964,
      "racing": 4965,
      "roster": 4966,
      "sem": 4967,
      "sap": 4968,
      "sound": 4969,
      "sets": 4970,
      "site": 4971,
      "sink": 4972,
      "summ": 4973,
      "saying": 4974,
      "tip": 4975,
      "tast": 4976,
      "tact": 4977,
      "treat": 4978,
      "tree": 4979,
      "tub": 4980,
      "tried": 4981,
      "tript": 4982,
      "taught": 4983,
      "tribute": 4984,
      "tech": 4985,
      "uter": 4986,
      "uph": 4987,
      "util": 4988,
      "vic": 4989,
      "vent": 4990,
      "vol": 4991,
      "vision": 4992,
      "vocal": 4993,
      "views": 4994,
      "veh": 4995,
      "wis": 4996,
      "wings": 4997,
      "western": 4998,
      "wait": 4999,
      "yellow": 5000,
      "##rin": 5001,
      "##ration": 5002,
      "##rate": 5003,
      "##rise": 5004,
      "##rban": 5005,
      "##ease": 5006,
      "##ding": 5007,
      "##ael": 5008,
      "##aur": 5009,
      "##aign": 5010,
      "##ault": 5011,
      "##aete": 5012,
      "##teen": 5013,
      "##trolled": 5014,
      "##track": 5015,
      "##oo": 5016,
      "##oic": 5017,
      "##over": 5018,
      "##oons": 5019,
      "##yard": 5020,
      "##sely": 5021,
      "##wa": 5022,
      "##wh": 5023,
      "##went": 5024,
      "##hm": 5025,
      "##hin": 5026,
      "##hod": 5027,
      "##hay": 5028,
      "##hum": 5029,
      "##hist": 5030,
      "##hold": 5031,
      "##nes": 5032,
      "##nered": 5033,
      "##lit": 5034,
      "##lav": 5035,
      "##laces": 5036,
      "##load": 5037,
      "##lgren": 5038,
      "##iad": 5039,
      "##ios": 5040,
      "##iately": 5041,
      "##ienced": 5042,
      "##cis": 5043,
      "##com": 5044,
      "##cles": 5045,
      "##cons": 5046,
      "##chest": 5047,
      "##cceeded": 5048,
      "##gn": 5049,
      "##gar": 5050,
      "##gment": 5051,
      "##grow": 5052,
      "##gments": 5053,
      "##gins": 5054,
      "##gram": 5055,
      "##gency": 5056,
      "##ux": 5057,
      "##uin": 5058,
      "##uit": 5059,
      "##uel": 5060,
      "##use": 5061,
      "##ukh": 5062,
      "##ba": 5063,
      "##bar": 5064,
      "##bra": 5065,
      "##vi": 5066,
      "##vá": 5067,
      "##van": 5068,
      "##vanced": 5069,
      "##fe": 5070,
      "##fy": 5071,
      "##fety": 5072,
      "##pan": 5073,
      "##mer": 5074,
      "##mas": 5075,
      "##mith": 5076,
      "##mill": 5077,
      "##mond": 5078,
      "##mates": 5079,
      "##mann": 5080,
      "##kner": 5081,
      "##53": 5082,
      "##ji": 5083,
      "##jan": 5084,
      "##jou": 5085,
      "##Matters": 5086,
      "##TV": 5087,
      "##era": 5088,
      "##eret": 5089,
      "##erce": 5090,
      "##iny": 5091,
      "##ini": 5092,
      "##inity": 5093,
      "##onym": 5094,
      "##orad": 5095,
      "##orary": 5096,
      "##orous": 5097,
      "##orical": 5098,
      "##escope": 5099,
      "##nds": 5100,
      "##atible": 5101,
      "##enue": 5102,
      "##encing": 5103,
      "##aro": 5104,
      "##iting": 5105,
      "##itively": 5106,
      "##itude": 5107,
      "##ana": 5108,
      "##ancial": 5109,
      "inn": 5110,
      "inner": 5111,
      "inside": 5112,
      "##alo": 5113,
      "##alm": 5114,
      "##aled": 5115,
      "##alty": 5116,
      "##asized": 5117,
      "##astern": 5118,
      "##ises": 5119,
      "##isis": 5120,
      "##isition": 5121,
      "##isia": 5122,
      "##isations": 5123,
      "told": 5124,
      "today": 5125,
      "tools": 5126,
      "##icapp": 5127,
      "##rel": 5128,
      "##reation": 5129,
      "##roit": 5130,
      "##rosc": 5131,
      "##outs": 5132,
      "##eleb": 5133,
      "##iling": 5134,
      "##ilian": 5135,
      "thing": 5136,
      "thick": 5137,
      "thorns": 5138,
      "thousand": 5139,
      "##oma": 5140,
      "##oment": 5141,
      "##omorph": 5142,
      "##irt": 5143,
      "##irm": 5144,
      "##entage": 5145,
      "##stone": 5146,
      "##stances": 5147,
      "##amorous": 5148,
      "##eted": 5149,
      "##etic": 5150,
      "##etitive": 5151,
      "fort": 5152,
      "##otry": 5153,
      "##otted": 5154,
      "##othes": 5155,
      "##otrophic": 5156,
      "##lend": 5157,
      "##lege": 5158,
      "##adict": 5159,
      "##odg": 5160,
      "##olic": 5161,
      "##urren": 5162,
      "##tered": 5163,
      "really": 5164,
      "reach": 5165,
      "rejected": 5166,
      "beat": 5167,
      "bear": 5168,
      "##ula": 5169,
      "##ulf": 5170,
      "##ules": 5171,
      "##ulated": 5172,
      "##tsburgh": 5173,
      "stal": 5174,
      "stay": 5175,
      "store": 5176,
      "stings": 5177,
      "stating": 5178,
      "stren": 5179,
      "string": 5180,
      "stages": 5181,
      "stars": 5182,
      "step": 5183,
      "straight": 5184,
      "deemed": 5185,
      "##imited": 5186,
      "##umn": 5187,
      "##ump": 5188,
      "##uments": 5189,
      "##umstances": 5190,
      "altern": 5191,
      "##rab": 5192,
      "##raz": 5193,
      "##rait": 5194,
      "##rage": 5195,
      "whom": 5196,
      "##essed": 5197,
      "##ocated": 5198,
      "ang": 5199,
      "##erson": 5200,
      "##rium": 5201,
      "##rians": 5202,
      "##usion": 5203,
      "##ushed": 5204,
      "##ching": 5205,
      "##chaete": 5206,
      "##ifiers": 5207,
      "##aves": 5208,
      "commented": 5209,
      "##aining": 5210,
      "orange": 5211,
      "##iance": 5212,
      "##oser": 5213,
      "##osit": 5214,
      "##osition": 5215,
      "##ipal": 5216,
      "##iplic": 5217,
      "placing": 5218,
      "##opy": 5219,
      "##opra": 5220,
      "suitable": 5221,
      "supre": 5222,
      "succeeded": 5223,
      "##eare": 5224,
      "##allow": 5225,
      "##ortun": 5226,
      "##ager": 5227,
      "##agree": 5228,
      "shop": 5229,
      "shared": 5230,
      "channel": 5231,
      "##antic": 5232,
      "##antry": 5233,
      "proper": 5234,
      "prosp": 5235,
      "project": 5236,
      "sea": 5237,
      "seed": 5238,
      "seem": 5239,
      "##aks": 5240,
      "##akesp": 5241,
      "20th": 5242,
      "Instead": 5243,
      "spring": 5244,
      "##onged": 5245,
      "exchange": 5246,
      "worn": 5247,
      "worms": 5248,
      "##ansen": 5249,
      "##ansion": 5250,
      "notes": 5251,
      "notion": 5252,
      "##apis": 5253,
      "Chopra": 5254,
      "recyc": 5255,
      "arran": 5256,
      "archit": 5257,
      "perce": 5258,
      "contain": 5259,
      "contemp": 5260,
      "enters": 5261,
      "encl": 5262,
      "ennead": 5263,
      "ensemble": 5264,
      "unl": 5265,
      "unp": 5266,
      "uncon": 5267,
      "unoff": 5268,
      "unlock": 5269,
      "unlic": 5270,
      "relate": 5271,
      "relatively": 5272,
      "Stand": 5273,
      "Still": 5274,
      "Strait": 5275,
      "##ovenes": 5276,
      "otherwise": 5277,
      "##ffalo": 5278,
      "commerce": 5279,
      "text": 5280,
      "cloth": 5281,
      "Arch": 5282,
      "descend": 5283,
      "reports": 5284,
      "reporter": 5285,
      "##izing": 5286,
      "price": 5287,
      "##phis": 5288,
      "imm": 5289,
      "actress": 5290,
      "##asons": 5291,
      "aband": 5292,
      "ability": 5293,
      "abilities": 5294,
      "partially": 5295,
      "##ishing": 5296,
      "offers": 5297,
      "care": 5298,
      "overs": 5299,
      "overl": 5300,
      "resc": 5301,
      "resurre": 5302,
      "research": 5303,
      "scale": 5304,
      "scrap": 5305,
      "scientific": 5306,
      "##veland": 5307,
      "##resentative": 5308,
      "teammates": 5309,
      "##ounts": 5310,
      "division": 5311,
      "operated": 5312,
      "operating": 5313,
      "pref": 5314,
      "prehist": 5315,
      "charter": 5316,
      "agent": 5317,
      "remix": 5318,
      "adjust": 5319,
      "##ubis": 5320,
      "Thoth": 5321,
      "##aired": 5322,
      "##iko": 5323,
      "##ikes": 5324,
      "2004": 5325,
      "includes": 5326,
      "cool": 5327,
      "coex": 5328,
      "cobra": 5329,
      "displ": 5330,
      "display": 5331,
      "disagree": 5332,
      "consist": 5333,
      "conscious": 5334,
      "consecutive": 5335,
      "newsp": 5336,
      "newcom": 5337,
      "Colomb": 5338,
      "##ference": 5339,
      "interest": 5340,
      "specim": 5341,
      "Anti": 5342,
      "Anubis": 5343,
      "obstru": 5344,
      "##ression": 5345,
      "cann": 5346,
      "feature": 5347,
      "feeling": 5348,
      "find": 5349,
      "financial": 5350,
      "roots": 5351,
      "Nek": 5352,
      "Neotry": 5353,
      "underwent": 5354,
      "Among": 5355,
      "outgrow": 5356,
      "assisted": 5357,
      "assists": 5358,
      "assistant": 5359,
      "assault": 5360,
      "attend": 5361,
      "centimeter": 5362,
      "sailed": 5363,
      "accused": 5364,
      "1999": 5365,
      "1995": 5366,
      "1993": 5367,
      "depth": 5368,
      "below": 5369,
      "1926": 5370,
      "1921": 5371,
      "transit": 5372,
      "acts": 5373,
      "acres": 5374,
      "amount": 5375,
      "##eev": 5376,
      "##ensed": 5377,
      "##enses": 5378,
      "Columbia": 5379,
      "ends": 5380,
      "retained": 5381,
      "1912": 5382,
      "1910": 5383,
      "1917": 5384,
      "1916": 5385,
      "1914": 5386,
      "signs": 5387,
      "signing": 5388,
      "##eben": 5389,
      "install": 5390,
      "##ropri": 5391,
      "worldwide": 5392,
      "Austrians": 5393,
      "supposed": 5394,
      "1860": 5395,
      "1869": 5396,
      "calling": 5397,
      "emph": 5398,
      "monotheistic": 5399,
      "##ilton": 5400,
      "militia": 5401,
      "expansion": 5402,
      "Seas": 5403,
      "decided": 5404,
      "decades": 5405,
      "glamorous": 5406,
      "location": 5407,
      "positively": 5408,
      "##anging": 5409,
      "engage": 5410,
      "engraver": 5411,
      "appears": 5412,
      "characteristic": 5413,
      "Only": 5414,
      "##itsu": 5415,
      "Allies": 5416,
      "battery": 5417,
      "minute": 5418,
      "releases": 5419,
      "description": 5420,
      "Johansen": 5421,
      "invent": 5422,
      "invoked": 5423,
      "define": 5424,
      "defeated": 5425,
      "defenses": 5426,
      "continu": 5427,
      "backing": 5428,
      "distance": 5429,
      "write": 5430,
      "##upied": 5431,
      "##inting": 5432,
      "starting": 5433,
      "1983": 5434,
      "receiving": 5435,
      "reception": 5436,
      "Leaf": 5437,
      "##ornia": 5438,
      "##anks": 5439,
      "powerful": 5440,
      "singer": 5441,
      "historical": 5442,
      "phil": 5443,
      "phyl": 5444,
      "winter": 5445,
      "subjects": 5446,
      "substant": 5447,
      "submar": 5448,
      "severely": 5449,
      "prevent": 5450,
      "Airport": 5451,
      "Airspace": 5452,
      "Airworthiness": 5453,
      "download": 5454,
      "##rolight": 5455,
      "ordered": 5456,
      "contradict": 5457,
      "officially": 5458,
      "describe": 5459,
      "mythic": 5460,
      "130": 5461,
      "Hungary": 5462,
      "didn": 5463,
      "founded": 5464,
      "##raying": 5465,
      "request": 5466,
      "artists": 5467,
      "impact": 5468,
      "implement": 5469,
      "observation": 5470,
      "Advanced": 5471,
      "moder": 5472,
      "##inson": 5473,
      "succession": 5474,
      "differed": 5475,
      "families": 5476,
      "connecting": 5477,
      "Christmas": 5478,
      "Buffalo": 5479,
      "Goals": 5480,
      "Goeben": 5481,
      "guard": 5482,
      "prompted": 5483,
      "concussion": 5484,
      "concludes": 5485,
      "concurren": 5486,
      "Short": 5487,
      "Shakesp": 5488,
      "memory": 5489,
      "portion": 5490,
      "realms": 5491,
      "annual": 5492,
      "1940": 5493,
      "1940s": 5494,
      "combination": 5495,
      "Assmann": 5496,
      "calendar": 5497,
      "elf": 5498,
      "equally": 5499,
      "##ypse": 5500,
      "commands": 5501,
      "criticism": 5502,
      "Scream": 5503,
      "##ologies": 5504,
      "1936": 5505,
      "systems": 5506,
      "Green": 5507,
      "certification": 5508,
      "destit": 5509,
      "limit": 5510,
      "##position": 5511,
      "protective": 5512,
      "##ographies": 5513,
      "competed": 5514,
      "America": 5515,
      "largest": 5516,
      "influences": 5517,
      "Beh": 5518,
      "Common": 5519,
      "Commander": 5520,
      "board": 5521,
      "collectively": 5522,
      "deliber": 5523,
      "grows": 5524,
      "statue": 5525,
      "allows": 5526,
      "allowing": 5527,
      "headqu": 5528,
      "governor": 5529,
      "Maxim": 5530,
      "publicly": 5531,
      "Cancer": 5532,
      "Canuck": 5533,
      "Calthrop": 5534,
      "Senate": 5535,
      "Senators": 5536,
      "licence": 5537,
      "missing": 5538,
      "sixth": 5539,
      "##obe": 5540,
      "shots": 5541,
      "discuss": 5542,
      "110": 5543,
      "breaking": 5544,
      "countries": 5545,
      "directly": 5546,
      "fruiting": 5547,
      "lesser": 5548,
      "behavior": 5549,
      "speaking": 5550,
      "focused": 5551,
      "Edmon": 5552,
      "efforts": 5553,
      "moral": 5554,
      "multiplic": 5555,
      "passing": 5556,
      "passengers": 5557,
      "pounder": 5558,
      "##riptions": 5559,
      "profitable": 5560,
      "months": 5561,
      "Engraver": 5562,
      "basis": 5563,
      "occas": 5564,
      "quality": 5565,
      "qualifiers": 5566,
      "##rams": 5567,
      "begins": 5568,
      "1964": 5569,
      "entrance": 5570,
      "Richmond": 5571,
      "crucial": 5572,
      "opportun": 5573,
      "painting": 5574,
      "titles": 5575,
      "##mediate": 5576,
      "1954": 5577,
      "communities": 5578,
      "community": 5579,
      "primarily": 5580,
      "advanced": 5581,
      "Perhaps": 5582,
      "circumstances": 5583,
      "illustrator": 5584,
      "picks": 5585,
      "initial": 5586,
      "devotion": 5587,
      "organizations": 5588,
      "Charts": 5589,
      "Charles": 5590,
      "indicates": 5591,
      "officials": 5592,
      "increasing": 5593,
      "restricted": 5594,
      "restrictive": 5595,
      "ideas": 5596,
      "ideology": 5597,
      "competitions": 5598,
      "significantly": 5599,
      "availability": 5600,
      "Aero": 5601,
      "Macmill": 5602,
      "Origin": 5603,
      "Pilots": 5604,
      "Scholars": 5605,
      "damage": 5606,
      "lowest": 5607,
      "runways": 5608,
      "slowed": 5609,
      "visible": 5610,
      "experience": 5611,
      "experienced": 5612,
      "examples": 5613,
      "amongst": 5614,
      "emergency": 5615,
      "polychaete": 5616,
      "youngest": 5617,
      "Flint": 5618,
      "Historic": 5619,
      "Parrot": 5620,
      "Trans": 5621,
      "balloon": 5622,
      "balloons": 5623,
      "margins": 5624,
      "marks": 5625,
      "selection": 5626,
      "width": 5627,
      "starts": 5628,
      "confirm": 5629,
      "extends": 5630,
      "playoffs": 5631,
      "possession": 5632,
      "improved": 5633,
      "Divine": 5634,
      "Frank": 5635,
      "Francis": 5636,
      "Guard": 5637,
      "Guide": 5638,
      "Guitar": 5639,
      "Memphis": 5640,
      "Simon": 5641,
      "crisis": 5642,
      "drawn": 5643,
      "flowers": 5644,
      "grad": 5645,
      "gradu": 5646,
      "heart": 5647,
      "hostile": 5648,
      "laborers": 5649,
      "laboratory": 5650,
      "magic": 5651,
      "magazine": 5652,
      "police": 5653,
      "ruler": 5654,
      "1973": 5655,
      "superv": 5656,
      "shows": 5657,
      "envision": 5658,
      "brothers": 5659,
      "ironclads": 5660,
      "Andrews": 5661,
      "cruiser": 5662,
      "M184": 5663,
      "Barry": 5664,
      "Croat": 5665,
      "Croats": 5666,
      "Imca": 5667,
      "Preservation": 5668,
      "Safety": 5669,
      "Slovenes": 5670,
      "credit": 5671,
      "caused": 5672,
      "err": 5673,
      "eras": 5674,
      "household": 5675,
      "treated": 5676,
      "converted": 5677,
      "constructed": 5678,
      "permission": 5679,
      "specialized": 5680,
      "safely": 5681,
      "acquisition": 5682,
      "individuals": 5683,
      "3100": 5684,
      "Masand": 5685,
      "Pittsburgh": 5686,
      "Rediff": 5687,
      "Serbs": 5688,
      "Torre": 5689,
      "Works": 5690,
      "bonus": 5691,
      "campaign": 5692,
      "freely": 5693,
      "horse": 5694,
      "horiz": 5695,
      "happened": 5696,
      "layer": 5697,
      "layers": 5698,
      "lifet": 5699,
      "lifesp": 5700,
      "merge": 5701,
      "musical": 5702,
      "ranked": 5703,
      "##olema": 5704,
      "##ivalent": 5705,
      "reasons": 5706,
      "##ospel": 5707,
      "##ospital": 5708,
      "problem": 5709,
      "spirits": 5710,
      "spiracles": 5711,
      "words": 5712,
      "negot": 5713,
      "negative": 5714,
      "reflect": 5715,
      "communicating": 5716,
      "Recordings": 5717,
      "recognised": 5718,
      "Awards": 5719,
      "Dahlgren": 5720,
      "Harrel": 5721,
      "Military": 5722,
      "Ptolema": 5723,
      "Portable": 5724,
      "Picture": 5725,
      "Summer": 5726,
      "Summary": 5727,
      "Vancou": 5728,
      "biography": 5729,
      "biotrophic": 5730,
      "cheaper": 5731,
      "falcon": 5732,
      "fairies": 5733,
      "grown": 5734,
      "hierarch": 5735,
      "taxi": 5736,
      "##rison": 5737,
      "##wala": 5738,
      "informed": 5739,
      "withdrew": 5740,
      "convin": 5741,
      "convention": 5742,
      "Unlimited": 5743,
      "prepared": 5744,
      "associations": 5745,
      "surrendered": 5746,
      "Definition": 5747,
      "Adrien": 5748,
      "struggle": 5749,
      "identified": 5750,
      "epithet": 5751,
      "counterfe": 5752,
      "African": 5753,
      "frontier": 5754,
      "Smith": 5755,
      "Small": 5756,
      "Soundtrack": 5757,
      "Temple": 5758,
      "Temples": 5759,
      "William": 5760,
      "easily": 5761,
      "garnered": 5762,
      "garrison": 5763,
      "iconography": 5764,
      "iconographies": 5765,
      "keep": 5766,
      "slight": 5767,
      "valuable": 5768,
      "inhab": 5769,
      "inhabit": 5770,
      "##rotrophic": 5771,
      "ready": 5772,
      "steamer": 5773,
      "airships": 5774,
      "choice": 5775,
      "championship": 5776,
      "championships": 5777,
      "remuneration": 5778,
      "remunerated": 5779,
      "Canadian": 5780,
      "functioning": 5781,
      "syncretized": 5782,
      "syncretism": 5783,
      "Brooke": 5784,
      "Brooks": 5785,
      "Azure": 5786,
      "Billboard": 5787,
      "Begrand": 5788,
      "Garden": 5789,
      "Meridian": 5790,
      "Official": 5791,
      "Prior": 5792,
      "Samuel": 5793,
      "autom": 5794,
      "duties": 5795,
      "escape": 5796,
      "festival": 5797,
      "fertility": 5798,
      "illness": 5799,
      "learn": 5800,
      "mutiny": 5801,
      "mounted": 5802,
      "northern": 5803,
      "ultimately": 5804,
      "##ythm": 5805,
      "##otheism": 5806,
      "rendition": 5807,
      "stingray": 5808,
      "shutout": 5809,
      "Intermediate": 5810,
      "spectrum": 5811,
      "enlisted": 5812,
      "enemy": 5813,
      "Steve": 5814,
      "component": 5815,
      "carrying": 5816,
      "remarked": 5817,
      "consulted": 5818,
      "understanding": 5819,
      "Representative": 5820,
      "Alongside": 5821,
      "Rajeev": 5822,
      "requirements": 5823,
      "Additionally": 5824,
      "quickly": 5825,
      "Description": 5826,
      "drawings": 5827,
      "musket": 5828,
      "sanctuary": 5829,
      "exclusively": 5830,
      "422nd": 5831,
      "Cleveland": 5832,
      "Feeding": 5833,
      "Fruitbodies": 5834,
      "Khenty": 5835,
      "Microlight": 5836,
      "NDTV": 5837,
      "Personal": 5838,
      "PopMatters": 5839,
      "Predynastic": 5840,
      "Potentials": 5841,
      "Rushie": 5842,
      "Waddon": 5843,
      "barracks": 5844,
      "ceiling": 5845,
      "costumes": 5846,
      "crosses": 5847,
      "duff": 5848,
      "grossing": 5849,
      "housed": 5850,
      "habitats": 5851,
      "journey": 5852,
      "killed": 5853,
      "mobilized": 5854,
      "omn": 5855,
      "panels": 5856,
      "romantic": 5857,
      "sortie": 5858,
      "satisfy": 5859,
      "target": 5860,
      "veteran": 5861,
      "##shire": 5862,
      "##atanic": 5863,
      "towns": 5864,
      "asking": 5865,
      "constantly": 5866,
      "anthropomorph": 5867,
      "challeng": 5868,
      "Championship": 5869,
      "recommended": 5870,
      "universal": 5871,
      "Stanley": 5872,
      "immediately": 5873,
      "apparently": 5874,
      "interpreted": 5875,
      "objective": 5876,
      "aerobatics": 5877,
      "attributes": 5878,
      "trawl": 5879,
      "Revolution": 5880,
      "surveying": 5881,
      "minimum": 5882,
      "meteorological": 5883,
      "photograph": 5884,
      "annotata": 5885,
      "Apocalypse": 5886,
      "delivery": 5887,
      "strategic": 5888,
      "California": 5889,
      "question": 5890,
      "diagnosed": 5891,
      "predominantly": 5892,
      "Bechtler": 5893,
      "telegraph": 5894,
      "penetrate": 5895,
      "hieroglyphs": 5896,
      "Against": 5897,
      "framework": 5898,
      "accompanying": 5899,
      "language": 5900,
      "戦場のヴァルキュリア3": 5901,
      "Clayton": 5902,
      "Cattaro": 5903,
      "DLC": 5904,
      "DVD": 5905,
      "Detroit": 5906,
      "Dhawan": 5907,
      "Eye": 5908,
      "Extra": 5909,
      "First": 5910,
      "French": 5911,
      "Football": 5912,
      "Faulkner": 5913,
      "Gilii": 5914,
      "Honjou": 5915,
      "Habsburg": 5916,
      "Horthy": 5917,
      "Haiti": 5918,
      "Istvá": 5919,
      "Julian": 5920,
      "Joseph": 5921,
      "Kumar": 5922,
      "Latin": 5923,
      "Mariah": 5924,
      "NPPL": 5925,
      "Norway": 5926,
      "Nadiad": 5927,
      "Necklaces": 5928,
      "Ozawa": 5929,
      "Pacific": 5930,
      "Peziza": 5931,
      "Planning": 5932,
      "Ryan": 5933,
      "Russell": 5934,
      "Riela": 5935,
      "Szent": 5936,
      "Silent": 5937,
      "Songs": 5938,
      "Tunisia": 5939,
      "Wyoming": 5940,
      "WWII": 5941,
      "WYO": 5942,
      "cylinder": 5943,
      "deterior": 5944,
      "grayish": 5945,
      "herself": 5946,
      "pixie": 5947,
      "rhythm": 5948,
      "saprotrophic": 5949,
      "summer": 5950,
      "taste": 5951,
      "tactical": 5952,
      "triptych": 5953,
      "techn": 5954,
      "uphold": 5955,
      "vehicles": 5956,
      "wisdom": 5957,
      "##humously": 5958,
      "##icapped": 5959,
      "##roscop": 5960,
      "streng": 5961,
      "alternating": 5962,
      "supreme": 5963,
      "recycled": 5964,
      "arranged": 5965,
      "enclosed": 5966,
      "unoffic": 5967,
      "unlocked": 5968,
      "unlicensed": 5969,
      "displaced": 5970,
      "newcomers": 5971,
      "obstructions": 5972,
      "Neotrygon": 5973,
      "outgrowth": 5974,
      "Leafs": 5975,
      "phylogen": 5976,
      "concurrency": 5977,
      "Shakespeare": 5978,
      "Canucks": 5979,
      "Edmonton": 5980,
      "multiplicity": 5981,
      "Macmillan": 5982,
      "Parrott": 5983,
      "Ptolemaic": 5984,
      "Vancouver": 5985,
      "István": 5986,
      "Nadiadwala": 5987,
      "39": 5988,
      "37": 5989,
      "42": 5990,
      "46": 5991,
      "43": 5992,
      "52": 5993,
      "51": 5994,
      "66": 5995,
      "600": 5996,
      "70": 5997,
      "74": 5998,
      "89": 5999,
      "99": 6000,
      "91": 6001,
      "9th": 6002,
      "AD": 6003,
      "Ale": 6004,
      "Aay": 6005,
      "Ath": 6006,
      "App": 6007,
      "Ather": 6008,
      "AHL": 6009,
      "Action": 6010,
      "Agg": 6011,
      "Aks": 6012,
      "Astronom": 6013,
      "Aval": 6014,
      "Bh": 6015,
      "Bi": 6016,
      "Ber": 6017,
      "Bon": 6018,
      "Bes": 6019,
      "Bas": 6020,
      "Bil": 6021,
      "Big": 6022,
      "Bus": 6023,
      "Ball": 6024,
      "Bru": 6025,
      "Both": 6026,
      "Burn": 6027,
      "Berm": 6028,
      "Boy": 6029,
      "Bapt": 6030,
      "Cr": 6031,
      "CD": 6032,
      "Che": 6033,
      "Cic": 6034,
      "Cec": 6035,
      "Crow": 6036,
      "Crew": 6037,
      "Cross": 6038,
      "Creek": 6039,
      "Dion": 6040,
      "Dra": 6041,
      "Dant": 6042,
      "Diss": 6043,
      "Deb": 6044,
      "Dyn": 6045,
      "Dynastic": 6046,
      "Dalm": 6047,
      "Est": 6048,
      "Ele": 6049,
      "Ever": 6050,
      "Even": 6051,
      "Earl": 6052,
      "Eastern": 6053,
      "FC": 6054,
      "Fem": 6055,
      "Fore": 6056,
      "Five": 6057,
      "Father": 6058,
      "Fried": 6059,
      "Further": 6060,
      "Friend": 6061,
      "France": 6062,
      "Fabric": 6063,
      "Gr": 6064,
      "GP": 6065,
      "Gat": 6066,
      "Gill": 6067,
      "Grant": 6068,
      "Gaur": 6069,
      "Hi": 6070,
      "Has": 6071,
      "Hel": 6072,
      "Ham": 6073,
      "Hol": 6074,
      "Hand": 6075,
      "Hav": 6076,
      "Hate": 6077,
      "Hap": 6078,
      "Hell": 6079,
      "Hamp": 6080,
      "Hash": 6081,
      "Half": 6082,
      "Hai": 6083,
      "Haus": 6084,
      "Hollywood": 6085,
      "Hana": 6086,
      "Hodg": 6087,
      "If": 6088,
      "IU": 6089,
      "IB": 6090,
      "Ice": 6091,
      "Iss": 6092,
      "Ign": 6093,
      "Jo": 6094,
      "Jaan": 6095,
      "Jones": 6096,
      "Khe": 6097,
      "Kar": 6098,
      "Kub": 6099,
      "Kah": 6100,
      "Kris": 6101,
      "Lor": 6102,
      "Let": 6103,
      "Lem": 6104,
      "List": 6105,
      "Lock": 6106,
      "Lord": 6107,
      "Lond": 6108,
      "Mo": 6109,
      "Mi": 6110,
      "Mes": 6111,
      "Mar": 6112,
      "Mis": 6113,
      "Mut": 6114,
      "Mess": 6115,
      "Mun": 6116,
      "Mus": 6117,
      "Mag": 6118,
      "Mart": 6119,
      "Map": 6120,
      "Mike": 6121,
      "Mean": 6122,
      "Mont": 6123,
      "Myc": 6124,
      "Mgr": 6125,
      "Nation": 6126,
      "Nav": 6127,
      "Nort": 6128,
      "Nass": 6129,
      "Nature": 6130,
      "Norb": 6131,
      "Ou": 6132,
      "OS": 6133,
      "Out": 6134,
      "Off": 6135,
      "Own": 6136,
      "Outh": 6137,
      "Obs": 6138,
      "Py": 6139,
      "PA": 6140,
      "PE": 6141,
      "Pon": 6142,
      "Pal": 6143,
      "Pip": 6144,
      "Poin": 6145,
      "Page": 6146,
      "Prop": 6147,
      "Pray": 6148,
      "Pont": 6149,
      "Padu": 6150,
      "PPL": 6151,
      "Pump": 6152,
      "Ron": 6153,
      "Ran": 6154,
      "Ric": 6155,
      "Ram": 6156,
      "Ret": 6157,
      "Rand": 6158,
      "Rook": 6159,
      "Races": 6160,
      "Racing": 6161,
      "Si": 6162,
      "Sk": 6163,
      "SO": 6164,
      "Sou": 6165,
      "Sac": 6166,
      "Sus": 6167,
      "Sain": 6168,
      "Sok": 6169,
      "Sub": 6170,
      "Sier": 6171,
      "Sank": 6172,
      "Surre": 6173,
      "Sobe": 6174,
      "Te": 6175,
      "TO": 6176,
      "TG": 6177,
      "Ter": 6178,
      "Ton": 6179,
      "Tan": 6180,
      "Tam": 6181,
      "Tim": 6182,
      "Tra": 6183,
      "Tour": 6184,
      "Treat": 6185,
      "Trib": 6186,
      "Taw": 6187,
      "Tax": 6188,
      "Takes": 6189,
      "Tribute": 6190,
      "Trium": 6191,
      "Ut": 6192,
      "Vi": 6193,
      "VF": 6194,
      "Var": 6195,
      "Vol": 6196,
      "Vers": 6197,
      "Vict": 6198,
      "Vick": 6199,
      "Verm": 6200,
      "We": 6201,
      "Won": 6202,
      "Wild": 6203,
      "Wass": 6204,
      "Wish": 6205,
      "Ways": 6206,
      "Wash": 6207,
      "Woman": 6208,
      "Where": 6209,
      "Yug": 6210,
      "aw": 6211,
      "aim": 6212,
      "ach": 6213,
      "age": 6214,
      "aug": 6215,
      "ben": 6216,
      "bal": 6217,
      "bol": 6218,
      "blu": 6219,
      "bron": 6220,
      "bold": 6221,
      "bound": 6222,
      "bank": 6223,
      "burning": 6224,
      "barely": 6225,
      "cu": 6226,
      "cut": 6227,
      "card": 6228,
      "cure": 6229,
      "crop": 6230,
      "corn": 6231,
      "captain": 6232,
      "custom": 6233,
      "celeb": 6234,
      "dom": 6235,
      "dig": 6236,
      "dim": 6237,
      "date": 6238,
      "dated": 6239,
      "dance": 6240,
      "dry": 6241,
      "diss": 6242,
      "dors": 6243,
      "darker": 6244,
      "dens": 6245,
      "dying": 6246,
      "dominant": 6247,
      "dwar": 6248,
      "daughter": 6249,
      "ed": 6250,
      "et": 6251,
      "es": 6252,
      "ety": 6253,
      "ecl": 6254,
      "easy": 6255,
      "fra": 6256,
      "fall": 6257,
      "fart": 6258,
      "fine": 6259,
      "fix": 6260,
      "faces": 6261,
      "fighter": 6262,
      "fishes": 6263,
      "fabric": 6264,
      "gy": 6265,
      "gets": 6266,
      "germ": 6267,
      "gather": 6268,
      "graph": 6269,
      "greet": 6270,
      "gospel": 6271,
      "hy": 6272,
      "hard": 6273,
      "hates": 6274,
      "hired": 6275,
      "hyp": 6276,
      "hym": 6277,
      "hund": 6278,
      "hole": 6279,
      "horns": 6280,
      "hymns": 6281,
      "hospital": 6282,
      "jack": 6283,
      "ku": 6284,
      "kas": 6285,
      "kick": 6286,
      "kind": 6287,
      "lo": 6288,
      "ll": 6289,
      "lad": 6290,
      "lord": 6291,
      "lov": 6292,
      "lose": 6293,
      "lym": 6294,
      "likely": 6295,
      "mel": 6296,
      "mist": 6297,
      "mill": 6298,
      "mason": 6299,
      "mile": 6300,
      "mount": 6301,
      "matter": 6302,
      "moment": 6303,
      "nin": 6304,
      "nam": 6305,
      "num": 6306,
      "nost": 6307,
      "nations": 6308,
      "nov": 6309,
      "natur": 6310,
      "nomination": 6311,
      "nurs": 6312,
      "ov": 6313,
      "option": 6314,
      "ps": 6315,
      "pil": 6316,
      "pun": 6317,
      "pend": 6318,
      "pict": 6319,
      "pector": 6320,
      "pacing": 6321,
      "queen": 6322,
      "rot": 6323,
      "rad": 6324,
      "ray": 6325,
      "rur": 6326,
      "rate": 6327,
      "rap": 6328,
      "race": 6329,
      "rise": 6330,
      "rights": 6331,
      "rare": 6332,
      "rivals": 6333,
      "rented": 6334,
      "ranging": 6335,
      "sat": 6336,
      "sle": 6337,
      "say": 6338,
      "sand": 6339,
      "squ": 6340,
      "save": 6341,
      "sick": 6342,
      "soci": 6343,
      "sought": 6344,
      "search": 6345,
      "sitting": 6346,
      "session": 6347,
      "saves": 6348,
      "ter": 6349,
      "ties": 6350,
      "tum": 6351,
      "tem": 6352,
      "test": 6353,
      "tight": 6354,
      "table": 6355,
      "tert": 6356,
      "tug": 6357,
      "tying": 6358,
      "turning": 6359,
      "takes": 6360,
      "tells": 6361,
      "talent": 6362,
      "tanks": 6363,
      "urban": 6364,
      "ver": 6365,
      "van": 6366,
      "viv": 6367,
      "vague": 6368,
      "venue": 6369,
      "wr": 6370,
      "wa": 6371,
      "wore": 6372,
      "wish": 6373,
      "web": 6374,
      "wants": 6375,
      "yet": 6376,
      "youth": 6377,
      "yards": 6378,
      "Šk": 6379,
      "##21": 6380,
      "##rh": 6381,
      "##rat": 6382,
      "##rest": 6383,
      "##rity": 6384,
      "##rast": 6385,
      "##rick": 6386,
      "##rised": 6387,
      "##rash": 6388,
      "##ratch": 6389,
      "##eous": 6390,
      "##eating": 6391,
      "##eps": 6392,
      "##equate": 6393,
      "##de": 6394,
      "##diving": 6395,
      "##dresses": 6396,
      "##aut": 6397,
      "##aft": 6398,
      "##ties": 6399,
      "##tors": 6400,
      "##thes": 6401,
      "##tario": 6402,
      "##oor": 6403,
      "##oes": 6404,
      "##oing": 6405,
      "##oil": 6406,
      "##oid": 6407,
      "##oard": 6408,
      "##yles": 6409,
      "##sw": 6410,
      "##sur": 6411,
      "##site": 6412,
      "##west": 6413,
      "##hl": 6414,
      "##hood": 6415,
      "##happ": 6416,
      "##nic": 6417,
      "##nell": 6418,
      "##noon": 6419,
      "##nedy": 6420,
      "##lf": 6421,
      "##list": 6422,
      "##lain": 6423,
      "##los": 6424,
      "##lict": 6425,
      "##lets": 6426,
      "##life": 6427,
      "##lines": 6428,
      "##litting": 6429,
      "##lhin": 6430,
      "##iT": 6431,
      "##iac": 6432,
      "##ipt": 6433,
      "##iary": 6434,
      "##iative": 6435,
      "##iograph": 6436,
      "##iopolis": 6437,
      "##cil": 6438,
      "##col": 6439,
      "##cher": 6440,
      "##cess": 6441,
      "##cest": 6442,
      "##card": 6443,
      "##come": 6444,
      "##cure": 6445,
      "##cology": 6446,
      "##gent": 6447,
      "##gur": 6448,
      "##gow": 6449,
      "##gory": 6450,
      "##gree": 6451,
      "##gular": 6452,
      "##ugh": 6453,
      "##uge": 6454,
      "##uven": 6455,
      "##uaries": 6456,
      "##be": 6457,
      "##bel": 6458,
      "##bian": 6459,
      "##bles": 6460,
      "##break": 6461,
      "##bury": 6462,
      "##bai": 6463,
      "##vant": 6464,
      "##fu": 6465,
      "##fet": 6466,
      "##fect": 6467,
      "##fits": 6468,
      "##fare": 6469,
      "##fantry": 6470,
      "##pent": 6471,
      "##ply": 6472,
      "##pri": 6473,
      "##pist": 6474,
      "##power": 6475,
      "##pled": 6476,
      "##pret": 6477,
      "##mi": 6478,
      "##men": 6479,
      "##met": 6480,
      "##mpt": 6481,
      "##mak": 6482,
      "##mine": 6483,
      "##more": 6484,
      "##mans": 6485,
      "##mark": 6486,
      "##mish": 6487,
      "##miss": 6488,
      "##mons": 6489,
      "##mical": 6490,
      "##matic": 6491,
      "##mosp": 6492,
      "##mologies": 6493,
      "##zz": 6494,
      "##zes": 6495,
      "##zetta": 6496,
      "##kan": 6497,
      "##kee": 6498,
      "##kone": 6499,
      "##kinson": 6500,
      "##xford": 6501,
      "##55": 6502,
      "##87": 6503,
      "##86": 6504,
      "##の花": 6505,
      "##jun": 6506,
      "##jda": 6507,
      "##Music": 6508,
      "##SI": 6509,
      "##CN": 6510,
      "##Con": 6511,
      "##TA": 6512,
      "##Elhin": 6513,
      "##NA": 6514,
      "##heb": 6515,
      "##head": 6516,
      "##heast": 6517,
      "##erie": 6518,
      "##erters": 6519,
      "##erted": 6520,
      "##erbai": 6521,
      "##inion": 6522,
      "##inus": 6523,
      "##inine": 6524,
      "##inence": 6525,
      "##inisc": 6526,
      "##edom": 6527,
      "##oned": 6528,
      "##onic": 6529,
      "##onette": 6530,
      "##orated": 6531,
      "##orarily": 6532,
      "##orrh": 6533,
      "##aters": 6534,
      "##atus": 6535,
      "##atov": 6536,
      "##athed": 6537,
      "##atched": 6538,
      "##enact": 6539,
      "##enario": 6540,
      "##enium": 6541,
      "##aration": 6542,
      "##arant": 6543,
      "##arity": 6544,
      "##arous": 6545,
      "##areness": 6546,
      "##itz": 6547,
      "##itor": 6548,
      "##itch": 6549,
      "##itated": 6550,
      "##itars": 6551,
      "##anings": 6552,
      "##anish": 6553,
      "##anthrop": 6554,
      "##anche": 6555,
      "ink": 6556,
      "inade": 6557,
      "inau": 6558,
      "inhib": 6559,
      "##alry": 6560,
      "##alted": 6561,
      "##alists": 6562,
      "##asers": 6563,
      "##asgow": 6564,
      "##isonette": 6565,
      "tour": 6566,
      "tourn": 6567,
      "toler": 6568,
      "##ionally": 6569,
      "##icam": 6570,
      "##icts": 6571,
      "##rec": 6572,
      "##reck": 6573,
      "##related": 6574,
      "##regular": 6575,
      "##rog": 6576,
      "##rose": 6577,
      "##oupled": 6578,
      "##ele": 6579,
      "##ila": 6580,
      "##ilst": 6581,
      "##ilia": 6582,
      "##ilica": 6583,
      "thrash": 6584,
      "##omans": 6585,
      "##ompl": 6586,
      "##ominations": 6587,
      "##ira": 6588,
      "##iration": 6589,
      "##irational": 6590,
      "##irable": 6591,
      "##irits": 6592,
      "##acle": 6593,
      "##aches": 6594,
      "##stood": 6595,
      "##stained": 6596,
      "##stacles": 6597,
      "##aments": 6598,
      "##eth": 6599,
      "##etts": 6600,
      "##ether": 6601,
      "##etheless": 6602,
      "forg": 6603,
      "forth": 6604,
      "forest": 6605,
      "forests": 6606,
      "##iven": 6607,
      "##ivile": 6608,
      "##iveness": 6609,
      "##lying": 6610,
      "##otland": 6611,
      "##oteric": 6612,
      "##otroph": 6613,
      "##ada": 6614,
      "##adin": 6615,
      "##adow": 6616,
      "##aders": 6617,
      "##oda": 6618,
      "##odes": 6619,
      "##odic": 6620,
      "##odore": 6621,
      "##odge": 6622,
      "##olent": 6623,
      "##olve": 6624,
      "##ayash": 6625,
      "##uria": 6626,
      "##urring": 6627,
      "##urbing": 6628,
      "##urality": 6629,
      "##igall": 6630,
      "##igious": 6631,
      "onto": 6632,
      "##teries": 6633,
      "##terton": 6634,
      "##terior": 6635,
      "rej": 6636,
      "rever": 6637,
      "reenact": 6638,
      "bears": 6639,
      "##ids": 6640,
      "##idly": 6641,
      "##idance": 6642,
      "##uli": 6643,
      "##ulg": 6644,
      "##ults": 6645,
      "##ulum": 6646,
      "stations": 6647,
      "stair": 6648,
      "stood": 6649,
      "static": 6650,
      "stead": 6651,
      "stalk": 6652,
      "styles": 6653,
      "deep": 6654,
      "degree": 6655,
      "##imp": 6656,
      "##imals": 6657,
      "##imbing": 6658,
      "##ument": 6659,
      "align": 6660,
      "alone": 6661,
      "alread": 6662,
      "alludes": 6663,
      "##raits": 6664,
      "##raged": 6665,
      "##rave": 6666,
      "conif": 6667,
      "congress": 6668,
      "consequ": 6669,
      "convey": 6670,
      "##sey": 6671,
      "##sex": 6672,
      "##uting": 6673,
      "##utari": 6674,
      "##heres": 6675,
      "##herent": 6676,
      "##veral": 6677,
      "##versely": 6678,
      "##ocity": 6679,
      "anem": 6680,
      "anch": 6681,
      "answ": 6682,
      "ancest": 6683,
      "##unk": 6684,
      "##unker": 6685,
      "##embers": 6686,
      "##eminence": 6687,
      "##rio": 6688,
      "##riz": 6689,
      "##rial": 6690,
      "##istus": 6691,
      "##istance": 6692,
      "##istorted": 6693,
      "##istration": 6694,
      "atmosp": 6695,
      "isfet": 6696,
      "##uses": 6697,
      "##chy": 6698,
      "##chant": 6699,
      "##chart": 6700,
      "##ift": 6701,
      "##iful": 6702,
      "##avalry": 6703,
      "comfort": 6704,
      "ordin": 6705,
      "orchest": 6706,
      "oracle": 6707,
      "##ians": 6708,
      "##osh": 6709,
      "##osing": 6710,
      "##oshi": 6711,
      "##oscope": 6712,
      "##oslav": 6713,
      "##cting": 6714,
      "##ips": 6715,
      "##iparous": 6716,
      "plate": 6717,
      "plates": 6718,
      "plurality": 6719,
      "##opher": 6720,
      "##opular": 6721,
      "suit": 6722,
      "sustained": 6723,
      "##eared": 6724,
      "##orting": 6725,
      "##agi": 6726,
      "##ighbor": 6727,
      "shar": 6728,
      "shake": 6729,
      "share": 6730,
      "shorter": 6731,
      "shallow": 6732,
      "shaft": 6733,
      "shadow": 6734,
      "airport": 6735,
      "chart": 6736,
      "chair": 6737,
      "chief": 6738,
      "chasers": 6739,
      "projects": 6740,
      "proceeded": 6741,
      "program": 6742,
      "##esty": 6743,
      "##estones": 6744,
      "##ectations": 6745,
      "##ectric": 6746,
      "##ectives": 6747,
      "send": 6748,
      "seat": 6749,
      "sequ": 6750,
      "seized": 6751,
      "seism": 6752,
      "seemed": 6753,
      "##arte": 6754,
      "##artet": 6755,
      "##aki": 6756,
      "203": 6757,
      "Int": 6758,
      "Infantry": 6759,
      "spar": 6760,
      "span": 6761,
      "spok": 6762,
      "space": 6763,
      "spons": 6764,
      "sports": 6765,
      "spots": 6766,
      "sphere": 6767,
      "spotted": 6768,
      "splend": 6769,
      "spikes": 6770,
      "spraying": 6771,
      "spoil": 6772,
      "splitting": 6773,
      "spheres": 6774,
      "##ieve": 6775,
      "##ieux": 6776,
      "##inek": 6777,
      "ext": 6778,
      "export": 6779,
      "exha": 6780,
      "exterior": 6781,
      "##thern": 6782,
      "##itioned": 6783,
      "##ostolic": 6784,
      "note": 6785,
      "try": 6786,
      "height": 6787,
      "heka": 6788,
      "item": 6789,
      "Chines": 6790,
      "##quities": 6791,
      "recent": 6792,
      "recruit": 6793,
      "##ockading": 6794,
      "##ruck": 6795,
      "##ructure": 6796,
      "neighbor": 6797,
      "##ordial": 6798,
      "arche": 6799,
      "perfect": 6800,
      "##ustoms": 6801,
      "incident": 6802,
      "contained": 6803,
      "controll": 6804,
      "contention": 6805,
      "enc": 6806,
      "unus": 6807,
      "unity": 6808,
      "unless": 6809,
      "unkn": 6810,
      "uncles": 6811,
      "unrest": 6812,
      "relief": 6813,
      "relatives": 6814,
      "##ighted": 6815,
      "Station": 6816,
      "Stral": 6817,
      "Stories": 6818,
      "##perate": 6819,
      "##illand": 6820,
      "##illery": 6821,
      "##illae": 6822,
      "plays": 6823,
      "1800": 6824,
      "1853": 6825,
      "1821": 6826,
      "##ritory": 6827,
      "commenced": 6828,
      "commissioning": 6829,
      "##asty": 6830,
      "##asted": 6831,
      "teaching": 6832,
      "cler": 6833,
      "clothes": 6834,
      "climbing": 6835,
      "##rone": 6836,
      "Arts": 6837,
      "Arthur": 6838,
      "Argent": 6839,
      "Arjun": 6840,
      "Heath": 6841,
      "Hejda": 6842,
      "intro": 6843,
      "intense": 6844,
      "intention": 6845,
      "##outed": 6846,
      "firm": 6847,
      "reply": 6848,
      "reprodu": 6849,
      "repetition": 6850,
      "repetitive": 6851,
      "repeating": 6852,
      "manner": 6853,
      "manga": 6854,
      "##ogue": 6855,
      "##ograp": 6856,
      "##ograms": 6857,
      "leave": 6858,
      "##erved": 6859,
      "##ervatory": 6860,
      "printing": 6861,
      "privile": 6862,
      "##phant": 6863,
      "##phoma": 6864,
      "forming": 6865,
      "##idean": 6866,
      "acted": 6867,
      "actually": 6868,
      "actresses": 6869,
      "##assed": 6870,
      "##asses": 6871,
      "abstr": 6872,
      "abund": 6873,
      "##ureau": 6874,
      "##actions": 6875,
      "##achuting": 6876,
      "parted": 6877,
      "partly": 6878,
      "partner": 6879,
      "##ounded": 6880,
      "composer": 6881,
      "complain": 6882,
      "##ishment": 6883,
      "##ella": 6884,
      "##okie": 6885,
      "offensive": 6886,
      "carri": 6887,
      "caridean": 6888,
      "overse": 6889,
      "overarch": 6890,
      "##luded": 6891,
      "apply": 6892,
      "appointed": 6893,
      "appropri": 6894,
      "##iously": 6895,
      "residence": 6896,
      "reserve": 6897,
      "results": 6898,
      "scant": 6899,
      "script": 6900,
      "scene": 6901,
      "science": 6902,
      "scratch": 6903,
      "scenario": 6904,
      "##duke": 6905,
      "##reatened": 6906,
      "divin": 6907,
      "afterward": 6908,
      "afternoon": 6909,
      "afterlife": 6910,
      "operator": 6911,
      "operators": 6912,
      "prey": 6913,
      "prec": 6914,
      "preeminence": 6915,
      "users": 6916,
      "charitable": 6917,
      "aged": 6918,
      "agents": 6919,
      "remit": 6920,
      "reminisc": 6921,
      "remembers": 6922,
      "adequate": 6923,
      "##ubstant": 6924,
      "Thom": 6925,
      "Three": 6926,
      "Thousand": 6927,
      "Threatened": 6928,
      "evil": 6929,
      "evolved": 6930,
      "flaps": 6931,
      "##othouse": 6932,
      "Valerie": 6933,
      "ups": 6934,
      "upset": 6935,
      "upgr": 6936,
      "coached": 6937,
      "##ibers": 6938,
      "##ibayash": 6939,
      "disease": 6940,
      "dismiss": 6941,
      "Valkyrian": 6942,
      "Valkyira": 6943,
      "##sson": 6944,
      "##orship": 6945,
      "newer": 6946,
      "Colton": 6947,
      "Colorad": 6948,
      "College": 6949,
      "##ferring": 6950,
      "interior": 6951,
      "interpret": 6952,
      "interrelated": 6953,
      "##ificate": 6954,
      "##ifications": 6955,
      "Anat": 6956,
      "Anton": 6957,
      "Anup": 6958,
      "Ancient": 6959,
      "Animals": 6960,
      "earned": 6961,
      "obtain": 6962,
      "obtained": 6963,
      "obstacles": 6964,
      "##vedere": 6965,
      "canopy": 6966,
      "finite": 6967,
      "financed": 6968,
      "meanings": 6969,
      "rose": 6970,
      "rookie": 6971,
      "Neith": 6972,
      "Next": 6973,
      "Nevert": 6974,
      "understood": 6975,
      "underlying": 6976,
      "outbreak": 6977,
      "outfits": 6978,
      "assessed": 6979,
      "##empts": 6980,
      "attention": 6981,
      "attract": 6982,
      "centre": 6983,
      "centers": 6984,
      "Blockading": 6985,
      "##ohit": 6986,
      "accustom": 6987,
      "accounts": 6988,
      "accompl": 6989,
      "sole": 6990,
      "soft": 6991,
      "1996": 6992,
      "1994": 6993,
      "Jackson": 6994,
      "maisonette": 6995,
      "train": 6996,
      "trained": 6997,
      "traitor": 6998,
      "depot": 6999,
      "dependent": 7000,
      "depending": 7001,
      "deposit": 7002,
      "depicts": 7003,
      "representatives": 7004,
      "Read": 7005,
      "Reform": 7006,
      "belonged": 7007,
      "sympt": 7008,
      "1927": 7009,
      "1928": 7010,
      "translation": 7011,
      "transcend": 7012,
      "translated": 7013,
      "acorn": 7014,
      "ackn": 7015,
      "myself": 7016,
      "amid": 7017,
      "indirect": 7018,
      "##ensing": 7019,
      "##ensions": 7020,
      "armory": 7021,
      "Columbian": 7022,
      "endors": 7023,
      "retreat": 7024,
      "retiring": 7025,
      "retains": 7026,
      "retaining": 7027,
      "secure": 7028,
      "##uda": 7029,
      "##velopment": 7030,
      "pointed": 7031,
      "signal": 7032,
      "instit": 7033,
      "instinct": 7034,
      "installed": 7035,
      "Austrian": 7036,
      "persons": 7037,
      "developing": 7038,
      "believe": 7039,
      "moving": 7040,
      "movie": 7041,
      "movements": 7042,
      "towers": 7043,
      "toward": 7044,
      "suppressed": 7045,
      "152": 7046,
      "150": 7047,
      "1550": 7048,
      "emotion": 7049,
      "monotheism": 7050,
      "servants": 7051,
      "tempo": 7052,
      "temporarily": 7053,
      "warm": 7054,
      "wareh": 7055,
      "##ternative": 7056,
      "origins": 7057,
      "remains": 7058,
      "milk": 7059,
      "##ismeg": 7060,
      "expand": 7061,
      "expense": 7062,
      "expressing": 7063,
      "expensive": 7064,
      "expectations": 7065,
      "Sekh": 7066,
      "Seasons": 7067,
      "Several": 7068,
      "deck": 7069,
      "deceased": 7070,
      "decorated": 7071,
      "##anger": 7072,
      "##rows": 7073,
      "engined": 7074,
      "classic": 7075,
      "classified": 7076,
      "Ontario": 7077,
      "##ooking": 7078,
      "revival": 7079,
      "revolution": 7080,
      "humanity": 7081,
      "Aladin": 7082,
      "Alternative": 7083,
      "AllMusic": 7084,
      "batteries": 7085,
      "follows": 7086,
      "mint": 7087,
      "mines": 7088,
      "minus": 7089,
      "minted": 7090,
      "##rences": 7091,
      "##athi": 7092,
      "##umbered": 7093,
      "descriptions": 7094,
      "activate": 7095,
      "activism": 7096,
      "publisher": 7097,
      "defined": 7098,
      "defines": 7099,
      "product": 7100,
      "produces": 7101,
      "producer": 7102,
      "performing": 7103,
      "continent": 7104,
      "secondary": 7105,
      "backed": 7106,
      "distin": 7107,
      "distant": 7108,
      "disturbing": 7109,
      "writer": 7110,
      "1984": 7111,
      "1980s": 7112,
      "receive": 7113,
      "Leone": 7114,
      "Leading": 7115,
      "Lepist": 7116,
      "##aware": 7117,
      "genera": 7118,
      "generic": 7119,
      "generated": 7120,
      "metaph": 7121,
      "method": 7122,
      "personally": 7123,
      "histotroph": 7124,
      "substr": 7125,
      "obscure": 7126,
      "Ash": 7127,
      "Airports": 7128,
      "purs": 7129,
      "##aptured": 7130,
      "##ashion": 7131,
      "orderly": 7132,
      "describes": 7133,
      "Dev": 7134,
      "Dekan": 7135,
      "Development": 7136,
      "Split": 7137,
      "Spanish": 7138,
      "Spirits": 7139,
      "door": 7140,
      "doing": 7141,
      "pole": 7142,
      "infrast": 7143,
      "Atlantic": 7144,
      "12th": 7145,
      "139": 7146,
      "133": 7147,
      "134": 7148,
      "Raita": 7149,
      "opener": 7150,
      "opinion": 7151,
      "owners": 7152,
      "##lands": 7153,
      "requested": 7154,
      "artist": 7155,
      "artistic": 7156,
      "leader": 7157,
      "regulate": 7158,
      "regulating": 7159,
      "regulator": 7160,
      "observed": 7161,
      "Admin": 7162,
      "Conference": 7163,
      "Conversely": 7164,
      "Success": 7165,
      "Supper": 7166,
      "Sujoy": 7167,
      "Sundial": 7168,
      "highl": 7169,
      "models": 7170,
      "standout": 7171,
      "successor": 7172,
      "successors": 7173,
      "Flowers": 7174,
      "connects": 7175,
      "connections": 7176,
      "Christopher": 7177,
      "guess": 7178,
      "guilt": 7179,
      "guarant": 7180,
      "guitars": 7181,
      "guidance": 7182,
      "promulg": 7183,
      "concent": 7184,
      "concert": 7185,
      "prove": 7186,
      "provision": 7187,
      "province": 7188,
      "scorer": 7189,
      "Shu": 7190,
      "Shawn": 7191,
      "ideal": 7192,
      "memorial": 7193,
      "population": 7194,
      "portraits": 7195,
      "annular": 7196,
      "1946": 7197,
      "1944": 7198,
      "combat": 7199,
      "172": 7200,
      "179": 7201,
      "Assistant": 7202,
      "calibers": 7203,
      "else": 7204,
      "element": 7205,
      "equator": 7206,
      "equivalent": 7207,
      "presented": 7208,
      "sometime": 7209,
      "##ype": 7210,
      "##ymn": 7211,
      "##place": 7212,
      "##parate": 7213,
      "commoners": 7214,
      "critically": 7215,
      "Scales": 7216,
      "Scotland": 7217,
      "Scutari": 7218,
      "parents": 7219,
      "paraph": 7220,
      "paragl": 7221,
      "parachute": 7222,
      "schol": 7223,
      "##letic": 7224,
      "##fully": 7225,
      "##inka": 7226,
      "animation": 7227,
      "1934": 7228,
      "1938": 7229,
      "localized": 7230,
      "Greco": 7231,
      "Gregory": 7232,
      "certified": 7233,
      "sett": 7234,
      "setting": 7235,
      "setlist": 7236,
      "varies": 7237,
      "##nerable": 7238,
      "##ficial": 7239,
      "##roopers": 7240,
      "protest": 7241,
      "protected": 7242,
      "periodically": 7243,
      "competent": 7244,
      "covers": 7245,
      "influencing": 7246,
      "240": 7247,
      "247": 7248,
      "Apep": 7249,
      "Apostolic": 7250,
      "Before": 7251,
      "Command": 7252,
      "Committee": 7253,
      "Commodore": 7254,
      "authorizing": 7255,
      "boats": 7256,
      "collision": 7257,
      "collection": 7258,
      "civilization": 7259,
      "delicate": 7260,
      "films": 7261,
      "filmmak": 7262,
      "growing": 7263,
      "outer": 7264,
      "statistic": 7265,
      "##apsed": 7266,
      "heads": 7267,
      "governance": 7268,
      "reviewer": 7269,
      "Italians": 7270,
      "Calendar": 7271,
      "Senator": 7272,
      "Senigall": 7273,
      "bands": 7274,
      "banded": 7275,
      "handed": 7276,
      "handled": 7277,
      "handling": 7278,
      "handicapped": 7279,
      "sixty": 7280,
      "sixteen": 7281,
      "studied": 7282,
      "discip": 7283,
      "depictions": 7284,
      "Forces": 7285,
      "breakout": 7286,
      "fruitbody": 7287,
      "posted": 7288,
      "posthumously": 7289,
      "##azio": 7290,
      "refuse": 7291,
      "speech": 7292,
      "membership": 7293,
      "focusing": 7294,
      "Europan": 7295,
      "Edward": 7296,
      "Edfu": 7297,
      "Phot": 7298,
      "denominations": 7299,
      "effect": 7300,
      "effected": 7301,
      "morels": 7302,
      "morality": 7303,
      "multi": 7304,
      "multitude": 7305,
      "passage": 7306,
      "quant": 7307,
      "quarters": 7308,
      "sunk": 7309,
      "##aiya": 7310,
      "deaths": 7311,
      "suggests": 7312,
      "profound": 7313,
      "specifically": 7314,
      "positions": 7315,
      "blockading": 7316,
      "blockaders": 7317,
      "Manager": 7318,
      "USN": 7319,
      "culture": 7320,
      "lands": 7321,
      "landed": 7322,
      "oldest": 7323,
      "occupied": 7324,
      "qualification": 7325,
      "qualifying": 7326,
      "riff": 7327,
      "simpl": 7328,
      "simply": 7329,
      "##ramid": 7330,
      "##raments": 7331,
      "##yses": 7332,
      "aspirational": 7333,
      "1960": 7334,
      "1961": 7335,
      "1968": 7336,
      "1960s": 7337,
      "entry": 7338,
      "approval": 7339,
      "approaches": 7340,
      "significance": 7341,
      "losses": 7342,
      "popularity": 7343,
      "1650": 7344,
      "Books": 7345,
      "Oswal": 7346,
      "Playing": 7347,
      "Saves": 7348,
      "colle": 7349,
      "colors": 7350,
      "kingship": 7351,
      "microscop": 7352,
      "navies": 7353,
      "navigation": 7354,
      "opposed": 7355,
      "##coes": 7356,
      "1955": 7357,
      "1950s": 7358,
      "propelled": 7359,
      "proprio": 7360,
      "predynastic": 7361,
      "primordial": 7362,
      "complete": 7363,
      "advoc": 7364,
      "advice": 7365,
      "suggesting": 7366,
      "Confederacy": 7367,
      "McCon": 7368,
      "McElhin": 7369,
      "Rece": 7370,
      "circulation": 7371,
      "circulate": 7372,
      "circuit": 7373,
      "circulated": 7374,
      "illustration": 7375,
      "illustrations": 7376,
      "laid": 7377,
      "picked": 7378,
      "skydiving": 7379,
      "initiative": 7380,
      "##ingaloo": 7381,
      "debate": 7382,
      "devout": 7383,
      "organic": 7384,
      "organized": 7385,
      "organised": 7386,
      "organization": 7387,
      "organisations": 7388,
      "1840": 7389,
      "1844": 7390,
      "interacted": 7391,
      "interactions": 7392,
      "indicating": 7393,
      "indicator": 7394,
      "increases": 7395,
      "ideograms": 7396,
      "strongly": 7397,
      "250": 7398,
      "Aby": 7399,
      "Design": 7400,
      "Deshm": 7401,
      "Schw": 7402,
      "feminine": 7403,
      "running": 7404,
      "runner": 7405,
      "telescope": 7406,
      "visited": 7407,
      "##boards": 7408,
      "excited": 7409,
      "expert": 7410,
      "experiments": 7411,
      "replace": 7412,
      "replied": 7413,
      "attacking": 7414,
      "accordingly": 7415,
      "Regiments": 7416,
      "emerge": 7417,
      "helping": 7418,
      "pharaonic": 7419,
      "14th": 7420,
      "Coptic": 7421,
      "Except": 7422,
      "George": 7423,
      "Paris": 7424,
      "Parable": 7425,
      "Parachute": 7426,
      "Track": 7427,
      "Trismeg": 7428,
      "affil": 7429,
      "affect": 7430,
      "afford": 7431,
      "joint": 7432,
      "joining": 7433,
      "marble": 7434,
      "married": 7435,
      "marched": 7436,
      "midst": 7437,
      "market": 7438,
      "presided": 7439,
      "selections": 7440,
      "widely": 7441,
      "starter": 7442,
      "starring": 7443,
      "confused": 7444,
      "repairs": 7445,
      "synonym": 7446,
      "synthes": 7447,
      "crews": 7448,
      "possess": 7449,
      "possibly": 7450,
      "improve": 7451,
      "procession": 7452,
      "everyone": 7453,
      "everyday": 7454,
      "everybody": 7455,
      "symbolized": 7456,
      "symbolize": 7457,
      "508": 7458,
      "Franz": 7459,
      "Licensing": 7460,
      "Simmons": 7461,
      "crushed": 7462,
      "courses": 7463,
      "grass": 7464,
      "listen": 7465,
      "lacks": 7466,
      "linking": 7467,
      "magn": 7468,
      "materials": 7469,
      "oils": 7470,
      "penal": 7471,
      "triad": 7472,
      "trials": 7473,
      "trips": 7474,
      "triple": 7475,
      "##ylvan": 7476,
      "1972": 7477,
      "1970": 7478,
      "1970s": 7479,
      "shortly": 7480,
      "separated": 7481,
      "percentage": 7482,
      "1895": 7483,
      "1891": 7484,
      "1894": 7485,
      "manifestation": 7486,
      "Reigning": 7487,
      "participate": 7488,
      "determin": 7489,
      "determined": 7490,
      "determining": 7491,
      "M181": 7492,
      "Vaticana": 7493,
      "Barrage": 7494,
      "Crooked": 7495,
      "Glasgow": 7496,
      "Slav": 7497,
      "Slaughter": 7498,
      "Slatanic": 7499,
      "Trees": 7500,
      "causes": 7501,
      "erased": 7502,
      "genuin": 7503,
      "piety": 7504,
      "raise": 7505,
      "trees": 7506,
      "trend": 7507,
      "victories": 7508,
      "waterline": 7509,
      "watercol": 7510,
      "##nsylvan": 7511,
      "inspired": 7512,
      "inspiring": 7513,
      "inspiration": 7514,
      "threaten": 7515,
      "convers": 7516,
      "shifting": 7517,
      "argues": 7518,
      "argument": 7519,
      "legal": 7520,
      "floors": 7521,
      "specialist": 7522,
      "assignment": 7523,
      "safe": 7524,
      "acquire": 7525,
      "employed": 7526,
      "equipped": 7527,
      "occurs": 7528,
      "occurrences": 7529,
      "2686": 7530,
      "Central": 7531,
      "Flyers": 7532,
      "Masterton": 7533,
      "Relations": 7534,
      "Released": 7535,
      "Religious": 7536,
      "Serbia": 7537,
      "Serapis": 7538,
      "Walter": 7539,
      "bony": 7540,
      "bonfire": 7541,
      "beneficial": 7542,
      "culmin": 7543,
      "donated": 7544,
      "freest": 7545,
      "freedom": 7546,
      "fifty": 7547,
      "factors": 7548,
      "failure": 7549,
      "happy": 7550,
      "media": 7551,
      "medley": 7552,
      "mustered": 7553,
      "renov": 7554,
      "renumbered": 7555,
      "ranks": 7556,
      "wanting": 7557,
      "concealed": 7558,
      "1908": 7559,
      "changeable": 7560,
      "spirit": 7561,
      "negatively": 7562,
      "claiming": 7563,
      "manufactur": 7564,
      "applies": 7565,
      "adaptation": 7566,
      "adaptations": 7567,
      "meetings": 7568,
      "travels": 7569,
      "traveled": 7570,
      "traveling": 7571,
      "departure": 7572,
      "mysticam": 7573,
      "broadly": 7574,
      "Fairyopolis": 7575,
      "coloration": 7576,
      "exclude": 7577,
      "excludes": 7578,
      "recognized": 7579,
      "Awareness": 7580,
      "Acting": 7581,
      "Actress": 7582,
      "Germain": 7583,
      "Henri": 7584,
      "Hitoshi": 7585,
      "Losses": 7586,
      "Progress": 7587,
      "System": 7588,
      "Services": 7589,
      "editions": 7590,
      "false": 7591,
      "falcons": 7592,
      "fairy": 7593,
      "groin": 7594,
      "pantheistic": 7595,
      "pairs": 7596,
      "taxon": 7597,
      "taxonom": 7598,
      "undistorted": 7599,
      "##hiro": 7600,
      "##fortune": 7601,
      "informal": 7602,
      "##lemental": 7603,
      "assemble": 7604,
      "seek": 7605,
      "seeing": 7606,
      "arrest": 7607,
      "entered": 7608,
      "absence": 7609,
      "schedule": 7610,
      "preparing": 7611,
      "agreement": 7612,
      "disappoint": 7613,
      "disappointed": 7614,
      "disappeared": 7615,
      "measuring": 7616,
      "centerline": 7617,
      "deployed": 7618,
      "deployment": 7619,
      "surfaced": 7620,
      "poorly": 7621,
      "struggled": 7622,
      "struggling": 7623,
      "Islands": 7624,
      "Islanders": 7625,
      "funeral": 7626,
      "literal": 7627,
      "flintlocks": 7628,
      "demonstration": 7629,
      "birthplace": 7630,
      "Agency": 7631,
      "Nubian": 7632,
      "Plus": 7633,
      "Places": 7634,
      "Penarth": 7635,
      "Penalty": 7636,
      "Pennsylvan": 7637,
      "Survey": 7638,
      "Tarrant": 7639,
      "Tarzetta": 7640,
      "Today": 7641,
      "currently": 7642,
      "eye": 7643,
      "eastern": 7644,
      "keeping": 7645,
      "machines": 7646,
      "pastels": 7647,
      "ritually": 7648,
      "slip": 7649,
      "southern": 7650,
      "value": 7651,
      "vertically": 7652,
      "readily": 7653,
      "shrine": 7654,
      "shrines": 7655,
      "shrimp": 7656,
      "chapels": 7657,
      "progresses": 7658,
      "pressure": 7659,
      "smoothb": 7660,
      "perspectives": 7661,
      "promoted": 7662,
      "promoting": 7663,
      "promotional": 7664,
      "boxes": 7665,
      "Canada": 7666,
      "diamond": 7667,
      "predecessor": 7668,
      "Character": 7669,
      "Aerodromes": 7670,
      "legisl": 7671,
      "Montenegrin": 7672,
      "Azerbai": 7673,
      "Begin": 7674,
      "Family": 7675,
      "Famitsu": 7676,
      "Gardens": 7677,
      "Morrill": 7678,
      "Malhot": 7679,
      "Malini": 7680,
      "brig": 7681,
      "duty": 7682,
      "fuel": 7683,
      "figure": 7684,
      "figures": 7685,
      "festivals": 7686,
      "judged": 7687,
      "judgment": 7688,
      "keyboards": 7689,
      "learning": 7690,
      "loaded": 7691,
      "motu": 7692,
      "motor": 7693,
      "mutual": 7694,
      "message": 7695,
      "messages": 7696,
      "mounts": 7697,
      "northeast": 7698,
      "packed": 7699,
      "packing": 7700,
      "righteous": 7701,
      "toned": 7702,
      "ultimate": 7703,
      "viable": 7704,
      "##onomy": 7705,
      "intersects": 7706,
      "intersection": 7707,
      "rebu": 7708,
      "stopped": 7709,
      "stopping": 7710,
      "shutter": 7711,
      "proposal": 7712,
      "proposing": 7713,
      "severe": 7714,
      "seventh": 7715,
      "sexes": 7716,
      "exhibition": 7717,
      "heavily": 7718,
      "heavier": 7719,
      "enemies": 7720,
      "Steele": 7721,
      "tended": 7722,
      "prayer": 7723,
      "prayers": 7724,
      "principle": 7725,
      "principal": 7726,
      "components": 7727,
      "Repaired": 7728,
      "1582": 7729,
      "1580": 7730,
      "Raja": 7731,
      "Additional": 7732,
      "elevation": 7733,
      "elevated": 7734,
      "establishment": 7735,
      "muskets": 7736,
      "Raphaelites": 7737,
      "sanctuaries": 7738,
      "categorised": 7739,
      "dedication": 7740,
      "dedicated": 7741,
      "exclusive": 7742,
      "Authorities": 7743,
      "Authority": 7744,
      "Critic": 7745,
      "Critical": 7746,
      "County": 7747,
      "Council": 7748,
      "Certain": 7749,
      "Certificate": 7750,
      "Competition": 7751,
      "Ghosts": 7752,
      "Ghosh": 7753,
      "Girls": 7754,
      "Humans": 7755,
      "Metal": 7756,
      "Michael": 7757,
      "Nonetheless": 7758,
      "Party": 7759,
      "Research": 7760,
      "Rifles": 7761,
      "Salmon": 7762,
      "Silverstone": 7763,
      "aids": 7764,
      "audible": 7765,
      "auditioned": 7766,
      "astronomy": 7767,
      "astronomical": 7768,
      "badly": 7769,
      "drove": 7770,
      "droplets": 7771,
      "futile": 7772,
      "flexible": 7773,
      "flexibility": 7774,
      "getting": 7775,
      "peaked": 7776,
      "pleas": 7777,
      "pleased": 7778,
      "papillae": 7779,
      "rolls": 7780,
      "riverb": 7781,
      "renewing": 7782,
      "vulcan": 7783,
      "vulnerable": 7784,
      "veneration": 7785,
      "venerated": 7786,
      "wounding": 7787,
      "##hotep": 7788,
      "asci": 7789,
      "rearmed": 7790,
      "strike": 7791,
      "alleg": 7792,
      "Chapel": 7793,
      "Chapter": 7794,
      "contribution": 7795,
      "enjoyed": 7796,
      "unsure": 7797,
      "Study": 7798,
      "Studios": 7799,
      "1805": 7800,
      "1879": 7801,
      "overtime": 7802,
      "preceding": 7803,
      "aggressive": 7804,
      "aggressiveness": 7805,
      "admitted": 7806,
      "flatten": 7807,
      "flagship": 7808,
      "dispatched": 7809,
      "disrupted": 7810,
      "disruption": 7811,
      "aeroplane": 7812,
      "aeroplanes": 7813,
      "ambul": 7814,
      "instructing": 7815,
      "surprise": 7816,
      "Majesty": 7817,
      "responded": 7818,
      "Supporting": 7819,
      "Supplemental": 7820,
      "corresponding": 7821,
      "correspondence": 7822,
      "Organization": 7823,
      "episodes": 7824,
      "Ottawa": 7825,
      "Picturesque": 7826,
      "withdraw": 7827,
      "souls": 7828,
      "labeled": 7829,
      "reinforcements": 7830,
      "analysis": 7831,
      "Fujii": 7832,
      "mechanism": 7833,
      "mechanics": 7834,
      "Autumn": 7835,
      "Alexander": 7836,
      "Belvedere": 7837,
      "Balkan": 7838,
      "Conservation": 7839,
      "Denza": 7840,
      "Disco": 7841,
      "Delaware": 7842,
      "District": 7843,
      "Dasyatis": 7844,
      "Filatov": 7845,
      "Group": 7846,
      "Hermes": 7847,
      "Holyhead": 7848,
      "Jesus": 7849,
      "Jenny": 7850,
      "Kaiser": 7851,
      "Kennedy": 7852,
      "Kapoor": 7853,
      "Murder": 7854,
      "Nikita": 7855,
      "Peale": 7856,
      "PSN": 7857,
      "Permit": 7858,
      "Swan": 7859,
      "Upon": 7860,
      "Woodbury": 7861,
      "auctioned": 7862,
      "borrow": 7863,
      "besides": 7864,
      "cattle": 7865,
      "crown": 7866,
      "doctors": 7867,
      "dangerous": 7868,
      "drama": 7869,
      "fatal": 7870,
      "frescoes": 7871,
      "green": 7872,
      "gaming": 7873,
      "granules": 7874,
      "harv": 7875,
      "irregular": 7876,
      "linear": 7877,
      "maturity": 7878,
      "mentioned": 7879,
      "normally": 7880,
      "odd": 7881,
      "paid": 7882,
      "piercing": 7883,
      "racism": 7884,
      "treatments": 7885,
      "tubes": 7886,
      "uterine": 7887,
      "utilisation": 7888,
      "vicinity": 7889,
      "ventral": 7890,
      "volume": 7891,
      "wingspan": 7892,
      "##oiced": 7893,
      "##waite": 7894,
      "##while": 7895,
      "##garet": 7896,
      "##miths": 7897,
      "thousands": 7898,
      "stalked": 7899,
      "stayed": 7900,
      "shops": 7901,
      "property": 7902,
      "prospect": 7903,
      "seemingly": 7904,
      "architect": 7905,
      "perceived": 7906,
      "contemporary": 7907,
      "unlikely": 7908,
      "unpopular": 7909,
      "uncontrolled": 7910,
      "Standard": 7911,
      "Archduke": 7912,
      "descended": 7913,
      "abandoned": 7914,
      "oversaw": 7915,
      "rescue": 7916,
      "resurrection": 7917,
      "prefers": 7918,
      "prehistory": 7919,
      "adjusted": 7920,
      "coexisted": 7921,
      "displayed": 7922,
      "consistently": 7923,
      "newspaper": 7924,
      "Colombo": 7925,
      "specimen": 7926,
      "Antiquities": 7927,
      "cannot": 7928,
      "Nekheb": 7929,
      "attendees": 7930,
      "emphasized": 7931,
      "Seaside": 7932,
      "inventory": 7933,
      "philanthrop": 7934,
      "substantial": 7935,
      "submarine": 7936,
      "downloadable": 7937,
      "contradictory": 7938,
      "moderate": 7939,
      "Shortly": 7940,
      "destitute": 7941,
      "limitations": 7942,
      "Behind": 7943,
      "deliberate": 7944,
      "headquarters": 7945,
      "Maximilian": 7946,
      "occasional": 7947,
      "opportunity": 7948,
      "Transport": 7949,
      "confirmation": 7950,
      "Frankfort": 7951,
      "Guitarist": 7952,
      "gradually": 7953,
      "graduated": 7954,
      "envisioned": 7955,
      "horizont": 7956,
      "lifetimes": 7957,
      "lifespans": 7958,
      "negoti": 7959,
      "hierarchy": 7960,
      "convinced": 7961,
      "inhabited": 7962,
      "targeting": 7963,
      "anthropomorphic": 7964,
      "challenges": 7965,
      "questioned": 7966,
      "strength": 7967,
      "unofficial": 7968,
      "phylogenetic": 7969,
      "Aleuria": 7970,
      "Aayi": 7971,
      "Athletic": 7972,
      "Atherton": 7973,
      "Akshay": 7974,
      "Avalanche": 7975,
      "Basilica": 7976,
      "Billy": 7977,
      "Business": 7978,
      "Balloon": 7979,
      "Bruins": 7980,
      "Bermuda": 7981,
      "Baptist": 7982,
      "Cicely": 7983,
      "Crowe": 7984,
      "Danti": 7985,
      "Debut": 7986,
      "Dynasty": 7987,
      "Dalmat": 7988,
      "FCL": 7989,
      "Female": 7990,
      "Forever": 7991,
      "Friedman": 7992,
      "Furthermore": 7993,
      "Friendly": 7994,
      "Gaurav": 7995,
      "Heliopolis": 7996,
      "Hamilton": 7997,
      "Holid": 7998,
      "Havilland": 7999,
      "Hampshire": 8000,
      "Hashmi": 8001,
      "Hodgkin": 8002,
      "IUCN": 8003,
      "Ignazio": 8004,
      "Joe": 8005,
      "Jaane": 8006,
      "Khepri": 8007,
      "Kubinka": 8008,
      "Kahan": 8009,
      "Loretta": 8010,
      "Lemieux": 8011,
      "Listen": 8012,
      "London": 8013,
      "Moore": 8014,
      "Margaret": 8015,
      "Messina": 8016,
      "Magazine": 8017,
      "Martinek": 8018,
      "Maple": 8019,
      "Meanwhile": 8020,
      "Northern": 8021,
      "Nassau": 8022,
      "Norbury": 8023,
      "Outhwaite": 8024,
      "Observatory": 8025,
      "PETA": 8026,
      "Ponchart": 8027,
      "Palace": 8028,
      "Piper": 8029,
      "Points": 8030,
      "Padukone": 8031,
      "Pumpkin": 8032,
      "Return": 8033,
      "Rookie": 8034,
      "Sussex": 8035,
      "Saint": 8036,
      "Sokar": 8037,
      "Sierra": 8038,
      "Sankt": 8039,
      "Surrey": 8040,
      "Sobek": 8041,
      "Texts": 8042,
      "TGS": 8043,
      "Tribulation": 8044,
      "Taweret": 8045,
      "Taxonomy": 8046,
      "Takeshi": 8047,
      "VFR": 8048,
      "Varun": 8049,
      "Victor": 8050,
      "Wassaw": 8051,
      "Washington": 8052,
      "Whereas": 8053,
      "Yugoslav": 8054,
      "achieve": 8055,
      "augmented": 8056,
      "balance": 8057,
      "bolts": 8058,
      "boundaries": 8059,
      "corners": 8060,
      "dorsal": 8061,
      "dwarf": 8062,
      "etc": 8063,
      "esoteric": 8064,
      "etymologies": 8065,
      "eclip": 8066,
      "fragments": 8067,
      "farther": 8068,
      "graphics": 8069,
      "hymenium": 8070,
      "hundred": 8071,
      "kuhl": 8072,
      "loving": 8073,
      "lymphoma": 8074,
      "mistaken": 8075,
      "masonry": 8076,
      "ninth": 8077,
      "novel": 8078,
      "psych": 8079,
      "pilothouse": 8080,
      "punishment": 8081,
      "pendulum": 8082,
      "picture": 8083,
      "pectoral": 8084,
      "radio": 8085,
      "rapidly": 8086,
      "slender": 8087,
      "sandbar": 8088,
      "square": 8089,
      "tumor": 8090,
      "tertiary": 8091,
      "vanished": 8092,
      "viviparous": 8093,
      "website": 8094,
      "Škoda": 8095,
      "##iTZ": 8096,
      "##manship": 8097,
      "##orrhiz": 8098,
      "inadequate": 8099,
      "inaugur": 8100,
      "revered": 8101,
      "reenacted": 8102,
      "already": 8103,
      "coniferous": 8104,
      "anemoscope": 8105,
      "anchor": 8106,
      "atmosphere": 8107,
      "ordinary": 8108,
      "orchestra": 8109,
      "chairman": 8110,
      "exported": 8111,
      "exhaust": 8112,
      "Chinese": 8113,
      "neighboring": 8114,
      "Stralman": 8115,
      "##ographer": 8116,
      "abstract": 8117,
      "complaints": 8118,
      "overarching": 8119,
      "reminiscent": 8120,
      "##ibayashi": 8121,
      "dismissed": 8122,
      "Colorado": 8123,
      "Anupama": 8124,
      "Nevertheless": 8125,
      "accustomed": 8126,
      "symptoms": 8127,
      "acknowled": 8128,
      "instinctively": 8129,
      "Sekhmet": 8130,
      "publishers": 8131,
      "Lepisto": 8132,
      "metaphors": 8133,
      "Dekanich": 8134,
      "infrastructure": 8135,
      "Administration": 8136,
      "guarantee": 8137,
      "equatorial": 8138,
      "paraphyses": 8139,
      "filmmaker": 8140,
      "Senigallia": 8141,
      "Oswald": 8142,
      "microscopically": 8143,
      "McConnell": 8144,
      "McElhinney": 8145,
      "Deshmukh": 8146,
      "Trismegistus": 8147,
      "genuinely": 8148,
      "taxonomic": 8149,
      "disappointment": 8150,
      "Pennsylvania": 8151,
      "Azerbaijan": 8152,
      "Malhotra": 8153,
      "Ponchartrain": 8154,
      "kuhlii": 8155
    }
  }
}